10111111101001111101110000001100
10111111101010011000010001000100
10111111011101100110011111000001
10111111101011101110100111000101
11000000000100000000010110000110
10111111111001111011100110010001
10111111100001100011010001111001
10111111000000011000101000011010
11000000000000001101011110110010
10111111110000111110111010001010
10111111011010001110010101101110
10111111111001110000110001101100
10111111010010010001011110011001
11000000000010101111011001101111
10111110111010001010011110100111
00111101101101010111101001110111
10111111000111011001101010100001
10111111111011100101011010111100
11000000010001001100011111001100
10111111101100000100001000110101
10111111101100010101000011010111
10111101101010111001110110101100
00111111010011111000111110101011
10111111001000111001100010010111
10111111001000010010011010111000
10111110101010111010011001110000
10111111001001000101011110101010
10111111011101101001000010111010
11000000000101010110011111111001
10111111111110111011101110110110
10111111000100100101010010001110
10111111101011101100000100100100
