11000010011001000010001001110110
11000001001111110011100101001011
11000001111101111010011011000111
11000010000000000111110011000001
11000010110100110001010110110010
01000010100011010101010011110001
01000010011010111101010111100011
11000010101110000000110110100101
11000001110010001101001111011000
01000010111101111010011110000110
11000010001111000001011101011011
11000010000001111001011100101100
11000010001100001001000110010010
01000001101100100000011011010101
11000010100000010100101110011110
11000001100010100000110011101110
11000001001100110000101100000011
01000010001011101010000010110010
01000001101010010100001110100000
01000010001010101011101000111100
11000001101100110101011010100100
11000000101111000000111010010010
11000010010001010111011101111001
01000010100010101101011110100111
11000010110110110011000001010110
11000010011000110101110010001101
11000010000010110101000000000100
11000010101000000100011001100100
11000001110100000010100111101110
01000001001100010110010011110101
01000010001001011110011000101100
01000011000010000100101011000001
11000011010001000011111011100111
01000010100010101010111001000100
11000010000110010100010000100110
01000000111110101011100100011011
11000010100011110111101101011011
11000010001110110101000101101001
11000010101010000111111011101111
11000010001111100011010110101101
01000010011111000010110100010000
01000000110100101010001010100100
10111111100110011011101111010000
01000010011100111100000011110100
01000010110110100011111000111001
11000001100010011111011110001011
01000000101011101011110110111000
01000010100101001010000100010010
01000010000110010110100100110011
01000010100111011011100001010111
11000010011100100100111010000111
11000011000010010001010010001110
11000010100100000100001001101110
01000010010100110010110100011001
11000010000111110011100111001100
11000010000010001011110110111110
01000010001111010000000110010000
11000010011001000010001001100100
01000001110000001010010011011100
11000000110110100010000100100000
11000010001111010011010100011100
11000010100100100100101000000111
11000010000100111010100010111000
11000010010001100101111011010101
