01000101001010010100101001110100
01000101010001011011001101101110
01000101001010100010101100100010
01000101010000000010011101001011
01000101000111101110011000001110
01000101000100001101101101000100
01000101000001111110011000111110
01000101010000011110011101111011
01000101001101011110011100111011
01000101010000000110011111101011
01000101001010011110011100000100
01000101000011110111111101110000
01000101001101011110111100010010
01000101001011101110001111100011
01000101000101100101110001100100
01000101000010010100010101010011
01000101000111001011101110111010
01000101010100100000000110011010
01000101000101111101111011010011
01000101000100110110010010010011
01000101000000010111100101101010
01000101100001001100101101111101
01000100111010100010001100010000
01000101001001000110110110010110
01000101010000100111000110110110
01000101001100001100101010111101
01000101000111011011101000110011
01000101000011010110110000001001
01000101000110100011010110100011
01000101000111110101011111111010
01000101011011101110111011000101
01000101001111111101010000100001
01000101001000011110110110110010
01000101000101111001001000110101
01000101001010110000110001100111
01000101000111110110110110000010
01000101001001011011000101111000
01000101001100011100001110110001
01000101011010100001111100000001
01000101001100010011111111001101
01000101000111101001101111101111
01000101001110001000101101101011
01000101001000001010000111011111
01000101010011111110001111011010
01000101001101110000001101011011
01000101010100100010011101001100
01000101001011111010000110100000
01000101001000001101101011000111
01000101010001000111011101111011
01000101000101110100100011111011
01000101000101101000100101000011
01000101001001110111110110011011
01000101010011010000010011111001
01000101000011110110110101001100
01000100111111101110001001011010
01000101000110100010011110110001
01000101010101100110100011001111
01000101000101100111101001001110
01000101000111101001100011010011
01000101000110100010100111000110
01000101000001110000000110000011
01000101001011010101100111110111
01000101001100111011010000100100
01000101000110001111110000101110
