01000000000010010001111110001010
00111111011001110111111001111011
01000000000111110101010011000100
01000000001000001000101101001000
01000000000000010101010111110000
00111111110010100101100110010101
01000000000000010011111001111111
00111111110000101111110010010011
00111111110110101111000101100001
01000000001000010011000111111010
01000000001010001101001011110100
01000000010010100010101010101000
01000000000110010001010101111000
01000000000010011111110010110000
01000000010001110100011100000111
00111111100101000110011000000110
01000000001000001011010100101111
01000000000001100101010011100111
01000000001100011101000000110101
01000000001111001111110110111100
01000000000110111010000000111011
00111111101010000110001111111110
00111111110001010010101111110010
01000000000100001110111101001111
00111111100001011010010101010110
01000000000100010100110111010110
01000000000000110101011110001110
00111111100000000100000011000001
00111111001111011010001010011001
01000000000110001000011000011001
01000000010011100010001001100000
01000000001110000100000011010110
