11000000010001100111000011101111
01000000000101000010001001111111
11000000001010000000010011001100
00111110000100110110000110010010
10111111101111110000101001010100
11000000011101000110011110011001
11000000010000100101101000100111
10111111010010011110110011110001
11000000001010010011100100011111
11000000000101100101011001010111
10111110111000011001001110010010
10111111100110111100011100101110
01000000000100111011110010100111
11000000001010100100010111110101
01000000000010111100000010111101
11000000010011111010111010011110
11000000000001101000100010101001
11000000011011000110001110101110
11000000001101100000110001000001
00111111100011111010010111001111
11000000001100000011011001001010
10111101001000011011001000011100
00111111101011010011110100110011
11000000001001010110110100101011
10111111000000011111010011011101
10111110001001100001110000000100
11000000011100011011110000000110
00111111111100101000000100100100
01000000000000100110001100100011
00111111101111101111110001110010
11000000010110000011010100111101
11000000011000000111100101011010
