01000101001100101100010000110000
01000100110010011100101010001001
01000101011111101101000011010001
01000100111001111100111111011001
01000101000011101000110001001010
01000100110000110010111010111100
01000100111101001111011001111101
01000100110011011110001111011111
01000101000100101011011111110110
01000100111110001111000111100101
01000100101111001011011000100110
01000101100110110100100100100100
01000101000100100010100111011010
01000100110011101110001100110001
01000101000001011001011101101111
01000100110110100101010110011110
01000101000101111111101011101111
01000101001011101111100111000001
01000101011011100000001100100110
01000101001001111000001110001010
01000101000111100111000001101101
01000100111000111011111100101011
01000101000100100010010010000000
01000101001001111111001010110110
01000101000101001111000011000111
01000101000000101111101001011000
01000101000011110000111000011010
01000101001001000010001001001011
01000101000011010000011100100001
01000101000001010111101000010111
01000101100101100100010000101000
01000101010101001001110110111000
