01000001011010111100001001000111
01000000000001100000010000100010
11000000011111001011110100111101
01000000001100010111000110000000
11000010000001010001101010100010
01000001111110000111011101101011
01000001110011000111110100101101
11000001111010110111110000011001
00111111111000110101101011010110
11000010001101010010000100110110
11000001001100101011110100110010
11000001111101101010011111110101
11000000011110110010011101101000
11000010001100011011000100101111
01000000011100100100000111110011
11000001100011100100111011111000
11000001100110001100010111010000
11000001101010110111011001100111
01000010000110000001111111010011
01000000100101010100110000000010
11000010001011011101010101010110
01000001000011001011001111000111
01000010010011010010110000111111
11000000011011011010101000101100
00111111101111000011001101001001
11000000001000011011100101110001
11000001110101001010101010100000
00111111111000110110100100110111
11000000110101101100111011001111
01000010100010011100101101100110
11000001110011011001000011001001
11000010000010110000101110000101
11000001000111000101111000101001
10111110001100100010000101111011
11000010010010000111111111011001
11000001011110001010101101011100
11000001101100011001100001010111
11000010000011110100010101000101
11000010001100110010110010100111
11000000011111111100000111100001
11000000100010100100111000110001
01000001100100011100111110100011
11000001110100011010011110111100
01000010000001001101010100001111
11000001001100111111101100011101
11000001110111000101011111010001
11000001100010111010010110101111
11000001001100011111010111010000
11000010010010101100010010011001
11000001100100001100001011011100
11000001110111111001111001100000
11000001111110011010110101001000
11000001000110010110111100101010
11000010011101110011000100101100
11000000001001110100101110100110
11000010010010100101000000011000
01000001101100011110001111100101
11000010000001111001011001100100
11000001101111000000100010000110
11000010010101110011100001101111
11000001000001110000010010011110
11000000100001111100100100011111
01000000011000000001001000100000
11000000110011011001000000111101
