01000000000001100011000110001010
01000000000110010000111101000100
00111111101011011010000110001000
00111111110101111110110110100110
01000000011010010111110110101001
00111111111100000111000111010100
01000000000010001100110010011100
01000000000001000110100111111110
01000000101010110011101110111101
01000000011010111110100111011101
00111111111010000111111100100100
01000000000110101001100001000111
00111111110100010011110000101011
00111111110001010101101101111110
00111110011101010011011000110011
00111111100111001110110000001000
00111111101010111101010001000010
00111111111110010100000010100001
00111111110110011100010010000111
00111111101101101010111001000101
01000000010100011101111000101110
00111111010000100110001100100010
01000000000101001010101101000110
01000000000010100011110000011000
00111111011110000001110001011011
00111111010001111000000010001000
00111111101001111000011100100101
00111111100111010001100011001111
00111111001110111100011000110010
00111111101101001010011010001110
01000000010000000000000011001010
00111111100110011010111111100100
