11000000010011011010101001100111
11000000001100101101110100001100
10111111111110111000001010010111
11000000001001001011011001000011
10111110111110011101111100011111
11000000010011011001000101011110
10111111011011010111010001000001
11000000001010001010010111111100
11000000001101101111000110001100
11000000000101011110000010010000
10111111100111110100101111111101
10111111000000010001111001001011
10111110101100100011111110101100
10111111110100011110111100110010
10111111100010110010101010010011
10111111111111000001101100110101
11000000000101010101010111101100
10111110110011100001111101011100
11000000011110100110100111100100
11000000000000010001110000011110
10111111101010010001011011101100
00111100000011101110011111101010
11000000000001101010011011010011
11000000000010000001110001010000
10111111110001001101100101001001
10111111111100001001111100001101
11000000001001010000000000001110
11000000010001101011001011111100
10111111001110100011000001111110
10111111001001111001000101001111
11000000000110110111011011111000
10111010001011011101010100011100
11000000000011110100110000001001
10111111011110100000010100100010
10111111111010010111010111001101
11000000001011010010110010100001
11000000000101010111011011111011
11000000011001101110111100010101
10111101110110110001111010001010
10111110110001100011100110100011
10111111100100000111001100000110
10111111011110000101000011111000
11000000010110110111101101001101
10111110110100101000000011011100
11000000011000111000111010001101
10111100011011001111011000101100
10111111001010000000000101110011
10111111001110111110011111000101
00111110011111001001011100101111
10111111110111110000011010101010
10111111111010011101101101001001
11000000001011101011110110011100
10111111110111110011101011001100
00111101011101101110110001011101
11000000010011111000011001110010
10111111100010001101100001110101
11000000010010001100110111011000
10111110111101111111000001110100
11000000010001001110110001000110
11000000000101111101011001110111
11000000001001001000100111001011
11000000001000101110101111101110
10111101001011011001111100000000
11000000000010100000101000111101
