11000010000101100101110010110010
01000010000001110111001101110100
11000010110001110001001110010111
11000001100000110011111111100111
11000001010010100110011100110000
11000000100010001110101011111101
01000000100000111001001000100101
01000001111101000011000010001101
01000001010001111001110000010111
11000010100010010100100101000001
00111111110000010011000101101000
11000001111010110000001001001111
01000000110011000101011010100011
11000010000000110111101100011101
01000000100000000111111010001001
11000001100001011010001011100010
01000001001110010111001000011011
11000000000000111010101011010000
11000010001010000001000111011101
11000001101000000010100101100101
11000010000101101101000011010110
01000001001000001100110110001101
01000001010001111100001101011010
11000010001111011000001111010101
11000001001011011111011101110001
11000001010000100100110011110110
11000001011101101000010110000010
01000010011101011011000011110111
01000001111111100101000100010010
11000001101111101101000010111000
11000010010010111001111101000010
11000010011100101101100111110100
