01000000001000000001100011101010
00111111111110111111000100000101
00111111111111100100000001111100
01000000001100111010110100001110
01000000000110100100110011110110
01000000000000011010010100001111
01000000001011001110001000010010
01000000000100110011101000110111
01000000000111011101001000111100
01000000000110100111001001010100
00111111101100100101001111010100
01000000001010111100011110101101
01000000001111011111111101011001
01000000000111101100101100000111
00111111001110001000000001110101
00111111100001000000101100100001
01000000001010110001110111000101
00111111001010010111110001000111
00111111111011001100011011111101
01000000010011101101111111010100
01000000000100010010110110100001
00111111111101000101100011001011
01000000000101000101000000111010
00111111111110111110100000000110
00111111100110110101111001100001
00111111111101010110010100001000
00111111011101011101010010110000
00111111101111100011110100100100
01000000010011110000111011000100
00111111101111100000101101101111
01000000001101100010010011110111
00111111100010101101011011011010
