01000100101010011001000001010100
01000100100011100101000001000100
01000100011101110101000000000101
01000100100000001011011101000001
01000100100001010110001010010000
01000100010011001110111101111100
01000100101101011101111100110001
01000100110001111010001011101000
01000100011100001110110100100010
01000100100011011010111111011101
01000100011100000010001110101101
01000100101010010111101100001010
01000100110000110100010110101111
01000100101000001100001111101100
01000100100100100000001101011101
01000100001011001000010000111110
01000100010110010001011111001010
01000100011011010110101100001101
01000100100000110110100001000101
01000100010110101111000000010000
01000100011010010110001001101100
01000100101000001110100011000010
01000100100001001111111110101000
01000100101110011011110011000111
01000100100111011111110110110001
01000100100011001001111100011010
01000100011100100010101001110001
01000100100011011001110111101110
01000100011010011000011000001011
01000100100110101011011100011011
01000100101000000011011110001000
01000100110110111010000111100011
01000100011110000100111001011111
01000100100011000100111000100101
01000100100000010111010111010110
01000100101001111101110011101011
01000100010101100001101111011011
01000100100000001100010110110110
01000100110000100111010011111101
01000100011010111010011000000110
01000100101011000011110010011111
01000100110101110111010000010101
01000100100001101010010100101100
01000100101011000111001101010110
01000100101000000101011111001100
01000100100011000110000101100101
01000100101110001011110101110100
01000100011101100101111110101101
01000100011011110110001110001110
01000100011110110000000101111010
01000100011100111010101111110010
01000100100010110010110011001010
01000100101011101010101011011010
01000100110110010111001110011011
01000100010111111100111111001111
01000100110001001100010000000010
01000100011000111110000101110111
01000100001010000111111011101011
01000100010010110101111001111110
01000100011100011110010010111010
01000100011100011011110111100011
01000100011000110000000101111111
01000100100110000001000101100000
01000100100001011100110101000010
