10111111110000110110011110101111
10111111100110010001110001101100
10111110010101010100010010101101
10111111011100000001001011100010
10111111110000110100110001001101
10111110001111001110100110111101
10111111010110010001111110010011
10111111011001000101101010100111
10111111000110011011000010010010
01000000000000011001101101010010
00111110110001011110101100011000
10111111011001111010110010101001
10111111011010100011011000011110
10111111101010011011110011011100
11000000000001011010110000000100
10111111111011010010010010111011
10111111110111001101000100010100
10111111110110110010010001110110
10111111100111111100101111000000
10111111010100111100111101010011
10111111111011001100001101010010
10111111111110100100101001001010
10111111100011010010001000111000
10111111101000000100001011101110
10111111101011110110001010011000
10111111110100101000010010000101
10111111000011001111100010101000
10111100100001101101101010010000
10111111101010110100111001101000
10111111101111001100110001110010
11000000000010110111011110011000
00111100101000100000101011010110
10111111100001101100001100011001
10111111011111111010011101101000
10111111010101111010010110010110
10111111001110000001101110110001
10111111100001011110011001011010
10111111011001100101100111010001
00111111010110011000110110010011
10111111001100010100100101100101
10111111111011100000010011101000
10111111100000101100101010011110
10111111110101001000110010010011
10111111111010010000101010011010
10111111001101011000001100011101
10111101111011001011000000011100
10111111111110100000111010000100
10111111110110110111011011011001
10111111110011000101110000100111
00111110100001111010101010010001
10111111010110010110100001101101
10111111101111010100010110001001
00111111010100101100100011101001
10111111100010110010101000110101
00111110000100011111101111011000
10111111010001110001100101001100
10111111001000110100011000010100
10111111010111101111100110000001
10111110110000011101001101010110
11000000000101100111010000001101
11000000010110101001110101111010
00111111000101100010000110010011
10111111100001010011111010100110
10111111111110110110001101111111
