00111011001001010000001000110000
00111011000111010000111000001101
00111011001111110110100011111010
00111010110010011101110000000111
00111010110010010101000110001010
00111011010000101111111001000100
00111010111110101000100011000111
00111010111001010010011100001101
00111011001100111001001010111101
00111010111111110000101101010011
00111011000110011111000010000100
00111011010011110100100100010011
00111011001100101000111111011011
00111010110011101011011010110100
00111011001000011001100001010011
00111011000101101010000111000111
00111010111111111101111111110110
00111011001011001111110000010010
00111010110111010101110001111100
00111011000110110010101100001011
00111011000001000010111001110000
00111011001100000101111001011110
00111011001111100100001100101111
00111011000010010111010000111011
00111011000010110100010101010010
00111010111011111110111110010110
00111010111111101110110110011000
00111011010000011011110000110111
00111011001000100111100111101100
00111011100001010110100100111111
00111010111000100111010001000001
00111011001000110011001011111100
00111011000100010011010000101111
00111010111110111111101110110010
00111011000101111100011010000000
00111010111010100001001010110000
00111011000001101000110000101100
00111011000000001110001101100111
00111011000000011100100011001011
00111011001101110101011100010000
00111011000011111110100000001100
00111011001011010010010100101110
00111010111011101010010001110111
00111011001000011010011101110011
00111010111111010110011001101111
00111011001111111101110011010111
00111011010000000010001100101100
00111011001010101111010000100111
00111011010001100001011010100011
00111010111110111100011101010010
00111010111110100111110011011100
00111011000000100110010110110000
00111011000110101011010101010010
00111011010010111111010000100101
00111011000111000101100000111011
00111011010110001011001111110100
00111011000010011011011101001011
00111011000111111100111100010001
00111011000101000011100101111110
00111011011100111011111101000001
00111010110100100011000001011101
00111010110101101111000010101000
00111011000111000110001111111010
00111011001000110111110111011100
