00111111101011011001111000010101
00111110011100010010011000001001
10111101101011100110110011011100
00111110110001101110100000110010
00111111010110100011011000110101
01000000000100011000100110010010
10111111000001011100011111000010
00111111001000101000011011100000
00111111110010110010101001000111
10111110001011001010101101110010
00111111111000001011110100100100
10111110100010100100000101110011
10111111101111100110010010000101
10111111000011000000011011001000
00111110110101001100010101000111
01000000001110110110001001001001
11000000001011000101101100000000
00111110010010100000000100111001
11000000000011001111011100100110
00111111101101100000000000010000
00111110001011001000101001010101
00111111101010110110001000110111
10111111100010101011101000110000
01000000000110000001001011000100
10111111101011000100001111001110
10111111100000101000001011100010
00111111101000011100101010000011
10111110111110000100011010001100
01000000010110001110001101010111
11000000100000010101010111110001
10111111001001011110110100110010
01000000001011100000010000110101
