01000000011101011111100010110101
11000010100111100110111100011011
01000010000101001111111101001100
11000001011100111100011011001001
11000001100011100101111001011010
11000010100011010101011101010010
01000001010110101010101000011001
01000010000101110011001101111001
01000010001011001110000110001111
11000010001110110000001101011000
11000010001001101000011010000101
11000001100100011010010100100001
11000001001101011101111001000010
11000001101010010101100000000111
01000001110101111011111100101010
11000000011100100100010001100000
11000001101100000111000011000101
01000010001100011110100010110100
01000000101001111100001110101110
01000000011100010100100101010101
11000010100000011010111101010101
11000010100000110101011101001100
11000001101100011101101100010110
11000001010100010111001111110100
01000001110110111000111100100010
01000010000111011100110100010110
11000001100010011101111110000110
11000010001001111111111101111001
11000010001010101000010011101111
01000001110110010011010100110100
11000001101010110000011100000001
01000001111011111011000111111010
11000010001011000110111001011001
11000010101110011010101010100110
11000001100110100111110011010110
11000001100000101001110011100100
11000010000010111010000001000110
11000000100010110100000110111100
11000001100001000100101110101100
11000001110101110100110010001010
11000010100101111010011111110001
11000001101101000100000000101000
11000001100001101011110111110111
11000010011100000010111001011011
11000010100111111101010100100111
11000001110001111000011011110010
01000001010111011101010001111101
01000000111011100001011011001000
11000010101001001011011101110110
01000001101111101000101100000000
01000001000001000100000111001111
01000001100011001111101110110100
11000000101011010010110000111111
01000000100000100001111101111110
11000010100001001010001101011111
11000001100000110010101010101101
11000010001011111101001110011001
01000001101111100110111000101110
11000001110001000111100111101100
00111111111100111000111111111110
11000010001010000011110100010000
01000010101011101100011000001011
01000001010111001111111101000100
11000001001100001011001001011011
