00111110010111111000010110101001
10111110100100110100001011101100
00111110110100011101000001110010
10111110110101100011100111100100
11000000000100101100101101101110
10111111101001101100000110111000
10111110010000010110111011001010
00111111111001110101011100011101
01000000000000101110100110100000
10111111011111011111101000011001
10111111000110110111001010111001
10111110001101110011000001010000
10111110110110011111111010001110
10111111011111001101011100000101
10111110110100011111010100001011
00111110111111111101000111101101
10111111100010101101010100101100
00111110001101100111101001100111
10111110101100101011010010011010
00111110010111011010000101110001
00111111011010111000001010110010
10111111100001100000111001001000
00111110111100010111011011111000
00111110111111100100111111001111
10111111011010111101010111101100
00111101110011110110001100011000
10111110011000111110110001000010
00111111011010001010011011001111
00111110111011010000111100100001
00111111001101111010011101101010
10111111000000100110011101000101
10111101110101101111110001010110
10111111100111110100001011011100
10111110001000100101100000000110
00111111010111001100111010111010
10111111010100010110101101101101
00111111011100001001011010110010
00111110010001001000011100010101
10111110100010010101010110010000
00111101100000111110111101001110
10111110100000011111010001101110
10111110101101010101011000110000
00111111001000100100011101001101
00111111001001001011010010100110
10111111010001001000010000111111
10111101011111100000100100111010
10111110000000010111101010101101
00111111100100011011110101010111
10111111001010110011111111110101
10111110010001111110111110101000
00111111000110010101001000111111
10111111000010101100111011001010
10111111000100100111101001000011
10111111111000111011111101111100
10111110111110011110100110101010
00111111110010101000001110010111
10111111000010010100110001001111
00111101110111110011000110001001
00111101000001000111011000000011
11000000000011001100010100110100
00111110100001110101010111110101
00111110100110000000001101110100
00111110010110011000000100000100
00111111110111011110110100010111
10111111101110010001011010110011
10111111000110001110101101101101
11000000000010101000100001010110
10111100100011011100101110111101
00111111010011000110000001111110
10111111111010010100000010001011
00111110001000001110011101101011
10111110110110110010101100010110
10111111000111000111010011111010
00111111011000010101101110010111
00111111000001001010100001010010
00111110110100100010011001100001
10111110100000010011100000011101
00111110001001111011011001101011
10111111001110101100101101000111
10111111101110101111100001101001
00111111011000111110110110101001
10111111110000100001001111110010
00111110111011101111001100100111
00111111001110110011000111110011
00111110100110110101101010100010
10111110001000011101011000100001
10111110000011010101100001110001
00111110000000101100001110100111
10111111010111111010101111010101
00111111010000011101010110101001
10111110011000111110010100111111
00111110111000101010000110000100
00111101001010000100001101010100
10111101110001111011000101000110
00111111000010111000010010001110
10111110001101111010111001110001
10111111001011001111000111110101
00111110011110110110001001000010
00111111011111000100011011100011
10111110001011011110100011011111
10111111001110100111110001010110
00111111010000110111001011000000
10111101011111011000101011000110
01000000010001101000001101111111
10111111100011110100101010100101
10111111100100111010110010111000
00111011000101101010001101110000
10111111101001010001010000001110
00111101100100110010011011111100
00111111101000011110101000111010
00111111000110111011011011011011
00111111001110111110100010101100
10111111001000111011001110011001
10111110000001000111000111110000
00111110100100100000100001110111
00111110110110000010001000011010
00111110001001101011100011000001
10111101000111100001110011000001
10111101111110011000010011010101
00111110001010100001101100101111
00111111101010001011010000111111
10111101110100010011001101100101
00111110101111101010010001010010
00111111011110011000001001011110
00111110011100001101110000111011
10111111100110111110100100001110
00111111000101001101111001011010
10111111100100101011001010001111
10111110101100110101010110000011
00111110011010001100001100001110
10111110011110010000111110011001
10111100011001110101100110100101
00111101101100110111011101111111
00111111011111001000100000111101
10111110011011110100101000100000
10111111110111001101011111010011
00111110010010011111010111111010
00111111001001000101010100100111
10111111001100111011000100111010
00111110010000110000100001001000
00111101100101101001000100101011
00111101001101110000000110100111
00111100100001001100001000111101
00111110101011110110101100000000
00111111010000010010001011001000
00111110101101001011010000011010
00111110101100111011010101011011
00111111101110000010010101100100
10111111111100010101011000000101
10111110101101011100110010011010
10111111101000001111001010000011
11000000001110010110001010010101
00111111100011100011011000110011
00111111011100111000010011111010
11000000000011011000111101111000
10111111101010000010010101011011
00111111110101010000011100000010
00111111000000001001100110000011
01000000010001011100000011110001
00111111110100011110110101101100
10111111111010111011011100010011
00111110110011110100110000101001
10111110100110010011000011011111
00111111111101001000010100111010
10111111010111010000000011101100
00111110010001111100001000100011
10111101111111111111010011101110
10111111111010001011111101001101
10111111111001100111011000010010
00111111101100011000111111001001
10111111111011100010100101000110
10111111110011001010110110010011
00111111010000101000011100100101
01000000000111101100101111110101
01000000000110101010011110000101
10111111101001110100111101110111
10111110011110111001100010000100
10111110010000111001111011011010
00111111001111010100111000001010
00111111101010111101100110101000
00111110101100111001000110111010
10111110101000101001011011101000
10111101001111011111100110010110
00111111101101001000110110101100
10111111100100110101010000101011
00111110000100101010011010100100
10111111010010010010110010011000
00111110100110110100000110011110
00111111101000011010111111100011
00111111111011100100110101010110
00111111111100111001000011000001
10111111010010000110110011101100
00111111101001101100001001110100
01000000001111110100000111001100
11000000000111001011110011000010
11000000001001011010100000011100
01000000011000011010101011010010
11000000000000001011011111110001
01000000000010100110000000111111
11000000011100010011000011100110
00111111000000111100110101010101
00111111100011001001110101001000
00111111110111000110111000001111
00111110110110111101000111101010
00111111101100110111110110011111
10111111100111110110011110011111
11000000001001011101011000000001
01000000001011001000100010111100
10111111111110010111001100011000
01000000000001110010011111111101
11000000110100001000101000001101
11000000001100010000100110010001
00111111001110000111001010111101
10111111111111110101000111000000
01000000000100011111010000001011
11000000000011101001101110110011
00111111111001000010000101100010
00111111110100110000111000111000
00111111110111101001110010111101
00111111100001110011011011110001
10111111110001010101110100011011
10111111010001101000110100110111
11000000001010011111101100111100
11000000001100010110001001111011
01000000100000101101000111011010
00111111001110101101011001011101
11000000100001001100011111001001
10111111111100110111100000101001
00111110011001110101011011100000
10111111111001101011101001010011
01000000000000011110110000001111
00111111111100111011111110100110
01000000000000010111010001000110
00111111010011010000011101111110
00111111111111110000010000000011
00111111101100110110010101110100
00111111011100110100100011100000
10111111110010011011110010100111
10111111110011100110011100000010
11000000000111101010101111100001
00111111101011010011001011010110
00111110111100101001100011100100
00111111101010101111100101101110
00111111100110011111111000000000
00111111100111101010011010111000
00111100010111101110101110010000
10111110111111110101001000110110
00111111000000001011111011001100
11000000000100010110011000100001
10111110111001000001101000000100
10111101111000000000101111100010
10111110110111011010111110011011
10111110111001111001011100011000
10111101111000100001011100011111
10111111100011111110001111111010
00111111111101101000110010001110
10111110111011111000101110110111
10111111000000111110011001010010
00111111100110001011011111100001
00111111011000101100110111000110
10111111101100011111100001011111
00111110011010110101110010010001
10111110111011111001110110010100
10111111000111101100101101011001
00111111000100010111101110111111
00111111011100010111011110111010
00111101101001001011111000101110
10111100110010101001111000001000
10111111110111100100111011100101
10111111111001100000000001110111
00111110001000011011010010011011
11000000000010001100110110010011
01000000010101110100101010110110
10111111011011101001000100110001
00111111011011101101111101100111
00111111001110111000100010110011
10111111110111010011110111110000
00111111000000000000001001111101
10111111000100110110110000011111
00111110010011100111010011100110
00111111001001101000000110111101
00111111000110110011010100001011
10111110110010001101001011010101
10111110100110101000110101011010
10111110110101110011011110100010
10111111101111101101101111010001
00111111000110111010000001010111
10111111100100001011111011001110
00111111110101110101011111111111
10111111101110011111001011110010
00111111001111100111010101101110
10111111010000111111110100000000
11000000010001001101100011110111
01000000000010000111001100000010
00111111010010111000110110010100
10111111111010110011101000100000
00111111110101011110000101000010
00111111100001011111001000000100
01000000000110101101100100110011
00111111100011100110000100111111
10111110010011010100100101100111
10111110110100100001110001111001
00111111101010100010001001000011
00111110111100110110111100000111
10111111101110000101101110000111
10111101101011001001011101011100
00111111111011011110011001111001
10111111000000000001000001100001
10111111011001101001110110010001
00111111111111101011001000010001
00111110000000000001011110011111
10111110101010000101000011011111
10111111100110101000101000010101
10111111100001000010101101000010
00111111110001000101101010101101
10111111110011001010010000010000
10111111001010001001111110010110
00111111100100111110101100101100
10111101000100010110101011001100
10111110111110001101101001001011
10111111000010101000100101101101
00111111100000000010001010100101
00111111101110110100101101011010
10111110000000010001001110111100
00111111100001100011000110110101
00111110011011100000000000000100
00111110110010101101011010110001
01000000000011010001101100101010
10111111001111111010101001010001
10111111000001111110011110010011
00111111001111000101111101011011
10111110101100001001100011100011
00111110011011010010101111110100
00111111101000000101010011100111
10111111000110000001010011000100
00111111000010101000111101000110
01000000000101111100100110011001
11000000000001011001010111001101
10111110101110000110111101001111
00111111100100100001001001011110
01000000000101000010001000110011
01000000000110101000111001101110
10111111110000011011111000010110
11000000010110110100000010100110
00111110100001011110101110111100
10111111011010101000001110100111
10111111101000110111110111000110
01000000001010111110110111001010
10111100110100010110111010011000
10111101001001011011101100001000
10111111001001110001001011001010
00111111110101100000101110101101
10111111111111000000010100101100
10111111101110110001111100011110
10111110110010011101111100000001
00111110101000011001011110101010
10111110101000100111011100101011
01000000000100110101001011111110
11000000001001111011011110101010
10111111101001110001111001000010
10111110001110101001111000111001
11000000001100011011101001111010
11000000000011010000001001111110
10111110011010110110000011010101
10111111111011011111101100001101
00111110110110111010101101000010
10111111000011011011000000101100
10111111111100010111100110000011
01000000010111110010101110001000
00111101011110010110011111010111
10111111010111100111011110101000
00111101001100010101011011001001
00111110100010100001101101111111
00111111011010001101000010011001
10111111110101011010110101111101
01000000010001101000100101000110
00111111000010011011000100101001
11000000000100100100011010000111
10111111111101000001001011111000
10111110010001111011111101001111
00111111001011000010010010011100
00111110001101101001011011000000
10111111100010001100001111001000
10111111011110101010001101001100
00111111111110101000100100101100
10111110001100011011010011110001
00111110111010001001011110000011
00111111010000110000111010111111
01000000000110110101010101001111
10111110111000111110000000110011
00111111101101000000110111011110
00111101101110111111110101000000
10111111110110011001111101101110
00111110011111000110100110101110
00111101101010011100111011100001
00111111110011000110100000001011
00111011100111001001111100101010
00111110010001110110101111101000
10111110101000101110100101001011
00111111100110111001110001001110
10111111101000011111110111000001
00111101101000000011100001001010
00111111101001101101101010101011
10111110111011101100001010111101
10111111001111011010100000110110
10111101111010011000001010001001
00111110000101001000010011111001
10111111000110010010101111001011
00111111001100111111001011110010
10111111001001100100111111110011
00111100010010110100000101000110
10111111100000011100010011110000
10111110101000100110101111111000
10111110111110100011111010010100
00111111101000100001111001110101
10111111011010101111111110010110
01000000000110000001011001101110
00111111000110101100111100100000
10111101100101000001010101110010
10111110110100101101000101011000
10111111011010111000011010000000
10111101101110111110001010110110
00111111000000101101000101110100
00111111011001000100101101101010
00111110000111010100110000011011
10111101110011010110011111011110
00111111001010111101101100011100
10111111111011110101010100001011
00111110111111000001001100100101
10111111000110111100101100110101
00111111001000111111110010111010
00111111001111011010011100000100
