01000100110010001010010011110010
01000101010010110110011010110001
01000100110100000101011000101110
01000101010011100000100010000110
01000101000011000101011001011100
01000100100011110000111100000111
01000100110110011010010001011000
01000100100110100000111111010000
01000100101101110111011101001101
01000101001011110110000111010011
01000100110001101101010010011101
01000100110001000111011110101100
01000100110001110101011001110011
01000100100110100101001110100000
01000100100010010000110001001111
01000100101101001101011110100100
01000100110100000001100000001000
01000100110001111110001000010101
01000100100010100100100000001011
01000100101011011010100101111111
01000101000101111111011001110001
01000101010010110011100101101101
01000100101100101110001101000011
01000100110010100101101000010001
01000100100111010110110100010010
01000100101011110010000011000110
01000100101000000011000111101110
01000101000110011000010000110110
01000100101111011011100110000000
01000100100110110000100101000010
01000100111011111001111101101101
01000100110011000100001000001010
01000100110110001011011011110010
01000100111011001011010111011001
01000100110101000100111101110001
01000100101100111010110000000101
01000100110100101100101111101111
01000101000011000111001100110010
01000101000101000011011110101000
01000100100011001011111100111011
01000101000010100000001100001001
01000100111001111110100000001111
01000100110111011110100110100111
01000101100000010010011101010100
01000101000100010111101100110001
01000100111000111000001110010010
01000100111011010011001111001100
01000101000011101100101010010110
01000101001111111101001000100110
01000100101110000011111010100001
01000100101000000010011011011000
01000100101100100101010001000001
01000101000000011001011010011011
01000100110000010110101010000000
01000101001100010001110101010010
01000100101110001011111110001001
01000101000011100001010111101101
01000100111000001011010100011000
01000100101110011110010101101110
01000100100011110110001110010001
01000101000111000010101010110011
01000101000111111010110011001110
01000100110011001110010010010010
01000100110001010010100001001001
