10111111110100011001100000001100
00111101001100011001010111110100
10111111101100011101110101111000
10111111111100000110101101101110
10111111111100101001101110110001
10111111010111010000010100111101
00111111111001000100010010100011
10111111111011110001111001000001
10111111110001110100010010001000
11000000000001011100101100111001
10111111100101011010100001101100
10111111100010101011000100010011
10111111100100101100000001001110
10111110100001101101000000110000
10111111110011101010001011001111
10111111101100000001111001100110
10111110100111001100110001011011
10111111101110010001110100011011
11000000000111100111101110100000
10111111011001000101100100000100
10111111101101101100000001101010
10111111101110011111111011011110
10111111001111111010000011110010
11000000000111110110001010100011
10111111101100000100000101111100
10111111000110110101100010001100
10111111100111001000001001111101
10111110100000110100100101000101
00111110001101010111000100110101
10111111110000001110010001011111
10111111011011010110111011000011
10111111010011010111011100100111
