10111100111010110000010010110111
00111101010010011000110110100000
10111101001100010001001001010100
00111100000110101111011101101000
10111101001100001110001111110101
10111100100110110010111110101001
10111101011001111001010110011111
00111011100111100010111110110111
10111100000111011101101001110101
10111101010010011111110010111000
10111101100011010010101100011000
10111100101000010010101100111111
10111100111011110001001101000111
10111101011010010111100011011001
00111100001111101100001000110000
00111100100110110111101101100110
00111100111100000011011001111100
00111100010001110101000111100110
00111011000111011101011001101100
10111101000000111100111110111000
00111100110101000111011101100001
10111011011100111011101100111110
10111101110001110111101001010000
00111011010111000110010100111100
00111101100111011101100011101101
10111101011001100100001011000011
10111100111100100110010011001000
00111100110010110110010111110011
10111101000111010001100011000011
00111100110111110011010111111011
00111101010111110001100010010010
10111011111011001101101110000011
10111101001100010111111101000011
10111101011100010111101001011010
00111101101010010100000111100000
00111100100110100110001011101100
00111101000010111110001000001100
00111100111110101110000010010000
00111100110000101011011001010101
00111101010010110100011000100010
10111100000111001101110001100010
00111101010110101000100101111110
10111100110011010000101000111110
00111101100101110010001111011101
10111100000110111100110000100111
00111101000000000000000000100011
00111101011011010110011011110001
00111101100101110101101010111110
00111100001111011110000010111101
10111100000010101010000000101010
00111101000010010110000110000111
00111100100100101010101110000111
10111100011111111110100111101010
10111101000011011010010000000001
00111101100001001111100000111110
10111100100000001011110011010101
00111101000101011000111101111010
10111100011000100101000000011001
10111101011001000000111110101011
10111101000000001110100101010100
00111100100111011100100100011011
00111100111111100110011100110101
00111101010000011010111100111010
10111100111000100010010010110101
