01000000010100101010010011110101
01000000011011001000100101110111
01000000100000010110011101111101
01000000100011111010000100011100
01000000100111111100000010101001
00111111111011011010011011110010
01000000100000011110101010111100
01000000001111001000010010010111
01000000011001110100000001100101
01000000100101101111010000011111
00111111111110000100000000110110
01000000010010010000001111111000
01000000010010011000101111100101
00111111111010001111000001001110
01000000011011011010000010110101
01000000010111001000101111111100
00111111111100000011100010100111
01000000010000111000100101101101
01000000001110011011111101100010
01000000010110101101001111000010
01000000100010110001110101000111
01000000100010000010100011001000
01000000011001010001001111100100
01000000010111001101011101001000
01000000010101100110100111000011
01000000001000100001010100010010
01000000011010000111001011001010
01000000100000110100011110111111
01000000001110001001101010111011
01000000011111111110101110011000
01000000011001100111011111010011
01000000010011100110100011100001
01000000010011010011111010001011
01000000001010011010101111100110
01000000011000010110010001101010
01000000100000100101000110011011
01000000001111110011110000011101
01000000010010111101110001101011
01000000010110011001101111011001
00111111111111110111001101011000
01000000100001101111101001010110
01000000001010100011001111000011
01000000011111001100000011110011
01000000011101101101110001110111
01000000001011011001101101001011
01000000011110001001010010101000
01000000000001110101001011010111
01000000010110101110001101100110
01000000000001110010000011010011
01000000100100010001110011111110
01000000010111010000010110001101
01000000010010100101010000001110
01000000000110011011000011111110
01000000011011100110101100101100
01000000000101010100011010110000
01000000010000010100010001101001
01000000001011010111111111100110
01000000011111000100000011011111
01000000010111100000100100010010
01000000010001010110001001110100
01000000001011111001001101101001
01000000001101110000110010000010
01000000011010100000001010010011
01000000011011011011111010010001
