00111111101011011001111001111100
00111110011100010010011001111011
10111101101011100110110110100111
00111110110001101110011100011101
00111111010110100011011011101010
01000000000100011000100101111100
10111111000001011100011110001110
00111111001000101000011000001110
00111111110010110010101001001100
10111110001011001010101000011110
00111111111000001011110100111101
10111110100010100100000111011110
10111111101111100110010001111001
10111111000011000000010111110000
00111110110101001011111110100000
01000000001110110110001001100011
11000000001011000101101010111110
00111110010010100000001010110110
11000000000011001111011011101000
00111111101101100000000011101110
00111110001011001000100110100011
00111111101010110110001010001101
10111111100010101011101000100011
01000000000110000001001011000001
10111111101011000100001110000001
10111111100000101000001111000100
00111111101000011100100111111011
10111110111110000100001101101001
01000000010110001110001001000110
11000000100000010101011000010100
10111111001001011110110011110001
01000000001011100000010001000010
