10111111110000110110011110011011
10111111100110010001110001001010
10111110010101010100010011010100
10111111011100000001001010111011
10111111110000110100110001000111
10111110001111001110100111011111
10111111010110010001111111001111
10111111011001000101101001111011
10111111000110011011000100101111
01000000000000011001101101010000
00111110110001011110101011110011
10111111011001111010110010010101
10111111011010100011011000111101
10111111101010011011110010111001
11000000000001011010110000000110
10111111111011010010010011100010
10111111110111001101000100001011
10111111110110110010010001101111
10111111100111111100101110100100
10111111010100111100111101001111
10111111111011001100001100010100
10111111111110100100100101000010
10111111100011010010001000111000
10111111101000000100001011110000
10111111101011110110001010100110
10111111110100101000010001110110
10111111000011001111100010111001
10111100100001101101110000011010
10111111101010110100111001011111
10111111101111001100110001110100
11000000000010110111011101101110
00111100101000100000110011100101
10111111100001101100001100001110
10111111011111111010011110000000
10111111010101111010010101111101
10111111001110000001101110111010
10111111100001011110011010000111
10111111011001100101100111110110
00111111010110011000110110001111
10111111001100010100100101101100
10111111111011100000010011110111
10111111100000101100101010011011
10111111110101001000110001100110
10111111111010010000101011100010
10111111001101011000001100000001
10111101111011001011000001001111
10111111111110100000111001110000
10111111110110110111011010111011
10111111110011000101110000001111
00111110100001111010101010110111
10111111010110010110100010101011
10111111101111010100010101111101
00111111010100101100100011101010
10111111100010110010101000101100
00111110000100011111110000011011
10111111010001110001100100010110
10111111001000110100010111110100
10111111010111101111100110001011
10111110110000011101001101110011
11000000000101100111010000001000
11000000010110101010010110111000
00111111000101100010000101111001
10111111100001010011111010100010
10111111111110110110001101100110
