00111101100001100011111101011011
10111111111000000101100010101101
10111111110000010000010111001111
10111111100110111100101111111000
11000000001110011111010010010011
10111110011101010010110101000010
11000000000010101010000100110100
10111111010101011010110001100010
00111101010101100110010010010110
10111110001010011000010110110010
00111101000111110010011110011111
10111111111010001111000111110010
10111111111111111010101011111010
10111110101110101100111100001100
10111101111011100100111100110010
11000000001001010101101101000101
10111110100011011100100110010001
10111101111000001000010110111000
10111110011010011111111110010010
00111110001101100010001100110110
10111111010100110111100011100100
10111111111010000010011000011001
00111100001011111000000001100110
10111101001000000111001010100000
10111111110010110001010001110111
10111111100101101000100011001000
10111110111001100001001001001011
11000000000001100101000011011100
10111111010111100100010100100111
11000000000101001101110011011100
10111111011100110110111000100110
10111111101101001000001111001110
