01000100101011101001010000111010
01000100110100011100100101111000
01000100010111010101011100101100
01000100100100000000111010000010
01000100101011111110000010001000
01000100110110011010100111101010
01000100101001010010100001111000
01000100111010110111110101110111
01000101001011000100001110111001
01000101000001110111110000011111
01000100100011000000100110010000
01000100101110011111110000111110
01000100101001101010110000001011
01000100101011110000010111001011
01000100100100100110000111001001
01000100101000000001100001110011
01000100100000001100011000110011
01000100111101101100001000010110
01000100101010010011001101011100
01000100101001010110100111000100
01000100110111000000010010100111
01000100011001100001111100110110
01000100101111110011010001010001
01000100110000001001010011111110
01000100100110101101111001001010
01000100101011010100110000100111
01000100100101001100110111011111
01000100011111111111001100101001
01000100100101001000010100110011
01000100100110001110101100010101
01000100101011010000010001010011
01000101000011010010111110101101
