01000000000110011101011101010100
01000000001011011100010000001101
01000000001001001101101110010100
00111111000101101101111011001010
01000000000011101110100001101101
01000000000010000011011100000111
01000000000011011000100001010100
00111111111100110101101011101101
01000000000010011001101111001101
00111111110101011011101000010010
00111111110110100011010011101100
00111111110010010000110011010010
01000000000101001000001000111110
01000000000001010011110110111001
01000000001101000011011011110101
01000000000010010010100111110001
00111111111001111110110011010101
01000000000101111001010011010111
01000000000001100010011010110100
00111111111101000010001001011111
01000000000001110100111100011001
00111110110111011101000100111010
01000000001010100011011101101010
01000000000010110111100010101100
00111111010101100101010101111000
00111111010101101101100010000011
01000000000110011110000111001010
01000000001101001111011001010101
01000000001100010110111110110000
01000000001010010000100010101101
01000000000110101001110000001101
01000000000100100010001010010010
