00111111111111001111111000101010
01000000000011100100001011011100
00111111110001100110011100000000
00111111111011001001100011100100
01000000000000110100101100010101
00111111100100110101010011111111
00111111110011100110000111010001
00111111100101101000111100010000
00111111110011101001011100001110
01000000000100010011111100000110
00111111111000100011101001100111
01000000000101010001001101111100
00111111111100010001110110010001
00111111111010010001000001011101
00111111011011110101101010100010
00111111100001100001010011110011
00111111111100010011001010110011
00111111111000001010000000110010
00111111100011001010010000011100
00111111100111100010001011001101
01000000011111110000000110111011
00111111111101010111111011010000
01000000000001100001011100000010
00111111111110010000011011111101
00111111100111001000001111101110
00111111100000001110010011100001
00111111100011001001100100001010
01000000001100011011010100010101
01000000000111001010011011100001
00111111100110110000000101110010
01000000000100010110010001001001
00111111110001010100000100110111
