00111111110101010000000100110111
00111111101110100001011101100011
00111111110001111010001010001001
00111111111000110100110100111000
00111111101001100001001011100001
00111111010000001001010001110101
00111111110010110011110010000001
00111111011100001111001000100001
00111111100011101001000011111011
01000000000000110000011101010110
00111111001101111001001010010110
00111111110010100100110001110001
00111111110011000101000010100100
00111111100011111110101011001110
00111111111000101011010110111110
00111111001101001111011100001101
00111111110011111110101110011100
00111111100111111000010110110001
00111111101110000010110011100100
00111111011110111111111101001011
00111111101111011000011010001110
00111111110111000000000101101011
00111111010000000110001111000001
00111111111010010101000011000001
00111111110100001100000011100001
00111111010001100101111100101000
00111111100110000011011011111001
00111111100101011011110101111101
00111111111000101100110111000011
00111111011110000000111110111001
00111111111000011000110010100110
00111111101101111100100000111010
00111111110001111100000001100100
00111111100001111101111111110011
00111111110110011001010011010111
00111111110111000000111110101000
00111110101100110000011100111000
00111111100101100011101100001010
00111111001011010011110101101010
00111111100110110110100011010110
00111111110110110110111111101011
00111111100000010101111111110101
00111111101100000100111110101111
00111111101011111101100101101010
01000000000011001110100100110100
00111111101001100000000111110000
00111111100101100000000000001011
00111111110111101110101110100010
00111111011110100100111101100010
00111111110001110000011110101011
00111111110011001011000110011100
00111111100011010000101110000110
00111111110000100110010000110110
01000000000000110000000100011111
00111111110111000100001001011011
00111111111111110111111000100010
00111111100101110100100000101011
00111111100101000101110100100010
00111111101110100101000011000111
00111111101011100011110011001000
00111111110001100010111110011011
00111110110101110011010000111100
00111111100000101111110100010000
00111111111001111100111110111111
