00111111101011011001111001011010
00111110011100010010011001100000
10111101101011100110110011100011
00111110110001101110011111101110
00111111010110100011011010111101
01000000000100011000100101110010
10111111000001011100011110110110
00111111001000101000011001101000
00111111110010110010101001100000
10111110001011001010101101001110
00111111111000001011110100111011
10111110100010100100001000000011
10111111101111100110010010010000
10111111000011000000011001101000
00111110110101001011111101111011
01000000001110110110001001001101
11000000001011000101101100000010
00111110010010100000000111011101
11000000000011001111011100111000
00111111101101100000000001011011
00111110001011001000100100010111
00111111101010110110001011010001
10111111100010101011101001100010
01000000000110000001001010100101
10111111101011000100001111001100
10111111100000101000001011100001
00111111101000011100101001010001
10111110111110000100001100110000
01000000010110001110001001110101
11000000100000010101010111111110
10111111001001011110110101101001
01000000001011100000010001111000
