11000000110101101101000101110101
11000000111011110000111100101110
11000001000000111001001001001000
11000001000101000011000010101001
11000001001010001001010100010010
11000001000011111111001100010010
11000001001101101100011011111001
11000001001011100001000110011000
11000001000101000110000010001101
11000001000001101011110110100010
11000000111110111111010011100000
11000000111000000100110110110000
11000001000010010001101010000001
11000000100100001010101000011100
11000001010001100101111011110100
11000001000110000110110001101100
11000000101101000000000001011001
11000001001000001100010100000011
11000001000000000100101000100010
11000001000100101000100000111010
11000001001010010110100101110010
11000000101111011001010110001100
11000001001011101001010100010010
11000001000101010101000010100110
11000001000101111000001000000010
11000000101010110001100101001110
11000001000011110101001010001100
11000001001110000101011000110010
11000000110100110010101100110001
11000001010000100110101010111100
11000000110000110101100001111010
11000001000100001011100101001001
11000000111011111111100110111100
11000001000001001000111101010000
11000001000101010110001011011101
11000000111101111000010110101111
11000000110000011011001100100110
11000001000111001111111111001111
11000000101010000100001101100011
11000000101001100110001101010001
11000001010000100110001011100100
11000000100111101000000110111100
11000001001101110001100010010100
11000000100101010011011010110100
11000000100110101100010000101001
11000000110010000000101010100000
11000000111101010100000101000110
11000001000110100000001101111101
10111111111011000001100101011000
11000001000111010110110100101110
11000001000110100010001101010000
11000001010000111001101100101101
11000001000000100101001110110111
11000001000000010011110010101101
11000000100101101100011110011100
11000000101110011010010101101101
11000001000000011111001011111110
11000001000100101010101110011101
11000000110111101101010101110110
11000001000010111111001101000011
11000000100001011111101111000101
11000001000000001000010110000001
11000000111101101100101001011101
11000001001111010110100110000111
