00111111110111110100011101010000
00111111101000001101110011001111
00111110110110010000100001100110
00111111111111001111011111000000
00111110111110000000001101101110
00111111111111010000010100101010
00111110101110110000110111001101
00111110111001101011011110011000
00111110110011010000101011000010
01000000000000000010010111111111
00111111100111110011101011110110
00111111100100001000001101101010
00111111111111101010111100111000
00111111111011111001001010110000
00111111111011111000010110101010
00111110111011001111110111101110
00111111100001011011011001111110
01000000000001100000001001000101
00111110100011001100100000110111
00111111110001010110101101010110
00111111111100101111000001000110
00111111010111011001000111011001
00111110100111001000011001111011
01000000000111010001010100001000
00111111110110011011110100011011
01000000000011011010110010001111
00111111111010101000000000001110
00111110101100101100010011101111
00111111111111101000011011100011
00111111000100001100011000100011
00111111101011001001010100100001
10111111111101100000111100001001
00111111100101111011011110010100
00111111110110101100001101101001
00111111110111100110011010110011
00111110100101010100011000001011
00111111000010010001100101101001
00111111101110001000101110010001
00111111110110001110101000100110
00111111001110101010101111100111
00111110101111100001100100100100
00111110111001111010010100111100
00111111111011110100010000000001
01000000010001011111010110010010
00111111111010000011101110110110
00111111010011010010000010000000
00111111110000100011011011110000
00111111000110111110011010001100
00111111111011110011011001101101
00111111010101011001010101110011
00111111101110110110111101000100
00111111100111010000010100000100
01000000000011101000011101011000
00111111101111010101111110001111
01000000001001110110010110110001
00111111111111110100011010011001
00111111110000101000101010101111
00111111011111011100011001101111
00111110110110010011001000000100
00111111101010100101011110100010
00111111111010110001011101010111
00111111111001110110111001010001
00111111111111001110000101100100
00111111011011111101101010111000
