11000000000011110001110011111100
11000001010111100001001000001000
11000000111100110100000100001111
11000001000100010010000011111001
11000010010101010011010010101101
11000001001001010101010001010111
11000000100011111000010110100110
11000010100101011100110011010011
01000010011110010000001101111011
01000001011010101011000010111010
11000001110101111001110011100110
11000001000001100010100110010100
10111111011001110110001110000011
11000010101000010001000110001100
11000000101110110101111110001000
11000001000000001001110101101010
11000001001011101000110001101111
01000010000111101010001010110101
01000001100001011011011001110010
01000010010110110111010000011100
01000010101011100111010000001001
11000001110101001010100001110000
10111111100110101111011010010010
01000000110101001110011001000000
11000001011100011100010100111011
11000010100000100110101000000111
11000001110100000111101110100100
11000010000000111100001100001111
11000010000100110101110000110100
11000001101111000000010101000000
11000001101100001000100110010011
11000010010111110001101011111101
