01000101000101110101011000101101
01000101010101011111000011110011
01000101001110010100001111001111
01000101000101101011110110101001
01000101001001000001010011001000
01000100110101110000101010011101
01000101000101111110001011101100
01000101010111111010111101110111
01000101000000111010111011101101
01000101000100110111010111010100
01000101011110101001010100010111
01000101000010110011111001000000
01000101000000000001100101111000
01000101000001110101110110100100
01000101000101011000010110101111
01000100111111001101110010010000
01000100110000001011001010100000
01000100110111101100011000001110
01000100111000110100011110010101
01000101000010000001010101111001
01000101000011100001101100101000
01000100110100110011011110011011
01000101000100011111000100110100
01000101000100000010010100101100
01000101000010111011000101010011
01000101001001001000110000111001
01000101000001101111100101000101
01000101001110010100011100000010
01000101000100100111011000111010
01000101000101110001101001011110
01000100111101001100111010001100
01000101001000000100110001000011
