00111110111100000010101110111001
00111111110010110111010001110111
00111111101100011011111110010111
00111111100100010000101000011110
01000000000000001101101110011011
00111110111110010100000001101111
00111111111001000000001110010010
00111111101010011101101111111010
00111110110111111000101111111000
00111110110101001101011100111000
00111110111011011000011010110001
00111111101011010110100101011001
00111111101101010101001101011101
00111111001111100110001000111001
00111111000100001000100001101010
00111111111000011001010111100110
00111110110000000111100111011000
00111111010110101011000000101100
00111110111101101000001000100101
00111110110100101100111101011010
00111111010011011010011111110100
00111111101110011001011111111011
00111110110101011101010001011010
00111110100100001011111001101001
00111111101100001110111011001000
00111111100010110000111001010011
00111111011111110011110011100101
00111111111100100000101001010101
00111111100010101110001011100100
00111111110110110011010000011001
00111111100000000111100111010100
00111111110100001000100001100000
