01000101010111101001000101111010
01000101101000001000111010000100
01000101101110001000101001100011
01000101001111101010100011110111
01000101100000101101101101111100
01000101010110011100111011011111
01000101110110100111101010010011
01000101100000001000010110011100
01000101101011110000010000101001
01000101101000100101101010001000
01000101100111100001010001100110
01000101010000110110010011100111
01000101010001000111010100000101
01000101001100111000111111101010
01000101100110000001111000010011
01000101100010111010001111011101
01000101011100001111000100111000
01000101011011010101000100011011
01000101100000010010111001001100
01000101101001101110101000000101
01000101011000100010011000110110
01000101100010000000111111110110
01000101100110011011100111001110
01000101101010100111000110101010
01000101101010001111110110001001
01000101011110001111001010010011
01000101110000100010111111011110
01000101100110101011011010010011
01000101011011101010101011101110
01000101101100111010100111110101
01000101100000111000100011111111
01000101110011001100000010111000
01000101110100011100100110111011
01000101110110101010101010101000
01000101100110011001101010110001
01000101011001100000011100100101
01000101100001111110100000100111
01000101100101110011101011100101
01000101101101100010000110101001
01000101011000101010100100100100
01000101101111010101010101100000
01000101011000101011011101100001
01000101010100011011011011000011
01000101101010001101000010101000
01000101101100111100001111000011
01000101110001011001001011111011
01000101011010110010101010000101
01000101100011000101101111001010
01000101101000111010000001011100
01000101100010001010001001011001
01000101011010010110000111000000
01000101101000001010101001100000
01000101110100111111010000001100
01000101111000101100011011111001
01000101101100001110101100010101
01000101011001100000001100010001
01000101100111100010000100110110
01000101100000100010000100110010
01000101101111000010011011010100
01000101100001001001010011010111
01000101101101110110000101010011
01000101101111011001000100000001
01000101100010111010110000100010
01000101100110010111011001010110
