11000000000100110110111010101011
10111110100100110011011111110110
10111110100001111100001111110011
10111111101111001011000101010011
11000000000010000100011010010000
00111100000101100001011001000000
00111111001101001010010000101001
11000000010000111111000101100010
11000000001001111000100000110000
10111111101011101110000011000010
11000000001101010111100001110100
00111111010001110110110110001011
10111110111011111100011100010101
11000000001101001001111110011100
10111111110111111010101101001111
11000000000111010001110101111001
00111101110101110101010100011111
00111110010001110100111100011101
10111111111111101100111101000101
00111111101001000111000000110010
00111111000000110001011110111011
00111111101110001010110011011011
00111111000011101100011001001111
10111100101010111111110101011101
00111111100111001101100110101110
00111100111111011000111011110101
10111111101000101111000001000101
10111111000001111110001011000011
10111110111001111010101000100100
00111111001000100100001111110000
10111111100101001001111011101011
00111111110000111111010111001011
11000000010010111111000110010111
00111111101101101010000100000110
10111110010101101100111111000010
11000000000010100101100110011101
11000000001000110111011011000100
10111101010110000001011011001000
10111111101000110000110000000110
00111101101011011101001001000110
10111110111111111011011110010001
10111110000011001111000101110000
10111111010110000100111110001011
10111101111110111110010110011000
00111110111011111110111011010111
00111101111100011100110001001101
10111100001010001001001111100111
00111111100101111011101100101010
10111101010101101111010000101111
00111110010100110000010100011110
11000000001010101110110111110111
11000000010110001100010111000101
10111111110111011000001001110100
10111111100000000100001110111110
10111110101010100110010100001111
10111111111101011110011100110110
10111111100011111010111011010010
00111111000001000100110100100010
10111111011001100001010100110110
11000000001111001011010010011100
11000000000101100100001011000101
10111111110011100000011011001101
10111111010001000101010011101000
00111111000110011110010011001001
