10111111101011001011011111011101
11000000001111110100101000110101
10111110101100011110011101100011
10111110110001010111100010100010
10111111011101111011010100010011
00111111100000100010111100011011
00111110101110001100011000101100
11000000001011001010001000010001
11000000001100111101011101000011
00111100000011000011111010100100
11000000000100101100010011011000
10111111111010011000110001110000
11000000000111011110100110111100
10111110001010110111000101001010
11000000001000100011101111101010
00111111010010001111101000110111
00111111111001100111110100001111
00111111101000010111011101111100
11000000010001101100000101110011
00111110100011101000001010000101
11000000001100000111111010000100
11000000000000000101011000100011
10111111111110000101101000111110
00111111111110010011001010110110
10111111110101011000010000000010
11000000000011011000011011001100
00111110001101111000000000011101
11000000001001011001110000101110
11000000010101110001110100010010
00111110111100110001000111100011
11000000001011101010001111000010
10111110001000000010110111101100
10111111100110110111111011010001
11000000000101010011110101000110
10111111011001110010110010110010
10111111001101000101001110111011
10111111111011101111111111010001
10111111101011000010011111100101
10111111101100100010100110101001
11000000010100111001111011100100
00111111101010101101101001011100
11000000010000011001010100000101
10111110111111011001111100101011
00111111000011110000101000101101
01000000000001110000000100001000
10111111010100101101101101000101
10111111111011001011101110000001
00111111101001011100111001111111
01000000000101101110000011010101
00111111110110100101011101100101
10111111101011100010110111100010
11000000010100010000111011111001
10111110001001101001100000111001
00111111100011001010110000010101
11000000000001010110001110000101
11000000010101000110111111001100
00111110110011100001011111101100
10111111100010001010001001111000
11000000010000011100001100000101
11000000000010001101000001100101
10111101000010111011110000100001
11000000000111001100010111100011
10111111111101001111001101100100
11000000001110011111100001100110
