01000001110111001011000000001101
01000010000010011111010010101101
01000010001101110011010000000111
01000010010111001000100101110101
01000010010001100001111010111000
01000001111000110000111011101110
01000010010101100100000110001101
01000010001001001001001001000111
01000010000001111000000100011000
01000010001011001001000001101110
01000010000010001111101011111110
01000010010101111100110101101111
01000010001111010101100001001101
01000001110100100111000100010001
01000010010001011000011001111110
01000001111010100011001001111111
01000001011011110000100110111110
01000001111001000111100000000000
01000001111101001000000110011100
01000010001111000100011010001001
01000010000100000111111101111100
01000010000000110100101001100000
01000010100000101011111011111110
01000010000010001011001111101110
01000010000111110010011100010111
01000001110010001100101000001111
01000010000011001001100001100011
01000010000011111001100001011001
01000001110001101100110010110110
01000010100011101010011110100111
01000010001011001010011110001100
01000010010011100111000001110100
01000010001101001100110101011001
01000001111111011000100010110100
01000010010100101100010101011101
01000010000101001110000111000101
01000001110010101010110000101101
01000010000110000001000110011110
01000010001001011001001100011100
01000001011010000111011110001000
01000001111101011111111101000010
01000001110000110001111010010000
01000010001010111001110111010010
01000001111011010110100111001110
01000001111001111101110110101110
01000010000011101011110011111001
01000001100100100111101110011101
01000001110110010110110010001001
01000001100010110100001110010100
01000010100110110011101100101110
01000010000110100111100010001001
01000010010011111110110000000001
01000001110101000101001000010001
01000010010000001010000011110100
01000001100110111101011010001011
01000010000001110000110100101011
01000001111110110000111001001100
01000010011000001011000000011101
01000001110101001000111111001111
01000010001001011110011101100010
01000001100110110000010001001111
01000001111000010110111110101001
01000001111110110011111101000001
01000010011000011110001110100100
