10111110101111111110110011101011
10111110101101001001101101011011
10111111100011000001100001111111
10111110110000001110110111110001
10111111010010110101100101100011
10111111000111101010010100100011
00111101000101011011011001011010
10111111001010110110010011000010
10111111010100011001100100011001
10111111001111100011000100100001
10111110101010101100111000110101
10111110001010000011101011111111
10111110000101010110001100100001
10111110110001000011011111111111
10111110000111101101010100111011
10111110011101000101110010011010
10111110010001110010100100011000
10111110100110100111010110001111
00111111000101010101011100101000
10111110101101100100011011110000
10111111110001101001011111101000
00111101101101100000111110011111
10111111101010011001101001000010
10111111100101100001100001110110
10111111100101101101001110010110
10111111100110111011011101011110
10111111100000111111000000001110
10111111100100100001010010101101
10111111101100011010010000011001
00111110000100111111011011100111
00111100011001001010001101000000
10111110111101011011101011010110
10111110111000100000000111001010
10111110111101111000010011000000
10111111001000001100011111010101
10111111000100100001010011111100
10111110101101101111100100110011
00111111000010000100101011001000
10111111000000101110100000010100
10111110101000111010100011100110
10111110111110010100101100110110
10111110111001000100010010111011
00111111001011010001110101110011
10111111001111100110011110110001
10111111000100010101001000001001
10111110100101110010001101000101
10111110110011000001011100110110
10111110000011010110001001101110
10111110110101001100101010100001
10111110100001010011010000100111
00111110100101101001001001110011
10111111001001101110000010111101
10111111001000010000010010010011
10111111000000001001000111100100
10111111010001001011111100100101
10111111001101100110010111100111
10111110111100101001101111101101
10111111001001000001111010111100
10111111010101011110110001100010
00111101100000011101000101111011
10111110110011100000110010011101
10111110110010100010100011010111
10111110011010101010110001110110
00111111011110101010100000100101
10111110111001000011100110110100
10111111010011110010111010100010
10111110110010011010010001001010
10111110101111000001110111001101
10111110010000101011100100111011
10111110010010100111000111000111
10111111001111010110010100101110
10111111010000110100011111111000
10111111100111010111110000001110
10111101001110111110101101000011
10111111100101110111111101011101
00111101011011111111111010110010
10111111011111010001010000001111
10111111011101001110000011100011
10111111010000110100011011110110
10111111010101001111100000110110
10111111011110101100111101101110
10111110100100010111011001001110
10111111000111111000101000010011
10111110111010011101000000010000
10111110100010111000100110000111
10111111100000001111111110001000
10111111011101100101001110101101
10111111001100101110110011101101
10111110001100000011111101010101
10111111011011001111010011000100
11000000001111011110110100001101
11000000001010001100001110111100
10111111111000110011011000010111
10111111111000011001011000000011
11000000000000100110100010100001
10111111111000100101011010110101
10111111110001011110110101011111
11000000001100001100001010010111
11000000001011111001111100110111
11000000001101111000100110001101
10111110100011011101101011100011
10111111001100100101100101001100
10111111101001101011100101111100
10111111000001000000110101100110
10111111100110000000000101000010
00111100011100011011000010000010
10111111011110010000101001000111
10111111100010011010100101100001
10111111001100101011101110010100
10111111001111110011010011010111
10111111010011100001011011101111
10111111000011100010001010100100
10111111011011000111100001110001
10111111000110010011100111010100
00111101101110110101000111110111
10111110101011100101001111110110
10111111010011100000100010001001
10111110110001000010111101110110
00111101100011100010100101101100
10111110111011111111111010100111
10111111100111101111001110010001
10111111000101010101001001001001
10111111100111100100000011001001
10111111010001100110011111010100
10111110110000011101111011011010
10111111011000110110010100110100
10111111011010011101100011110011
10111110100100111100000000010010
10111110100010010111111000111010
10111110111101100111111001001000
10111111000011110110001001011100
10111111000010100101110101011110
10111110010011011111000001001000
10111111001011100110100001100101
10111111001011001111010111000100
00111100011000100010011100011100
10111111001111101000111001000001
10111101101001001010011011101010
10111110111000111101110100000101
10111110010000100111010000110110
10111111000001011001100101111010
10111110110000110110110100100111
00111111100101101010010000110111
10111110111111100000110001010111
10111111000011111100010110111011
10111111000100000111011100100001
10111110110100001000010011100011
10111111000011001101011011011111
10111110110011001101001010110100
10111110101000101111001111101000
10111111001100100010000111001111
10111110111011111100111100000101
10111111000101011110100110001101
10111110111010001000000000000001
10111111001001101011000010101010
10111111010000010011101011101111
10111111000011001001100011100001
00111111000100010111011111001101
10111110111011110110110110101100
10111110110100100000110000101011
10111110100001011001001000101100
10111110101000100010111011010000
10111110011011001100010111001111
10111110011101000000100011011011
00111111001000101101000001110010
10111110110000000011011000111111
10111101101011101100101111100000
10111110101010100010010001111001
10111110100000010111110100000111
10111101010101101100001100011000
10111110110001010110010101110110
10111110100000010111000101010000
10111110110101011000101000111100
10111111000010100010111110101101
10111111000010001110101010011110
10111111000101011010010111101100
00111111010101010100010011111000
10111110110110100011101111011101
10111110100000010000011101111011
10111110011101100101101111100110
10111111000011000000101110011111
10111111000011011010011000000010
00111110111000111011010111000000
10111111001010100101100101101110
10111111001110010101100111001010
10111111100001001000000110100101
10111111001101110010011001111011
10111111000001001111001110001110
10111111000010011110101110110001
10111111001001010000110011001000
00111100111111001000111100011011
10111111010101101011000110110000
10111111011001110011010011010011
10111110000111101100101011010001
10111111011111001111010110100010
10111111001010110100000011000000
10111111000110101110001010110110
10111101101010010111100011111111
10111111001100111101101011110010
10111111010010011000111111000100
00111101101111010000010011100100
10111111000001111010011101101111
10111111001001001111001111110010
10111111000001111011001010010010
00111111001100011001000010101111
10111110110101010000101111001100
10111110111011011000100100000101
10111110111101010000001001001010
10111111000000010011101011111100
10111111000111001011010010011101
10111110100100010010111000001010
00111101010110001111000111100100
10111110101100110110000100010111
10111110100010101100010010010000
10111110101101101101010001101000
10111101111111111111101011100001
00111101010110100100010100101100
10111110110111111010000011110101
10111101001011011111001110101010
10111110110101111000000000110111
10111110100100011001000100101011
10111111000100010110001111101111
10111111001000111010000000111101
00111111001111110000110010101000
10111111000101111010001010110010
10111111000001001010100011011010
10111111000010011011010101001101
10111111000100010111010111111110
10111110110011011001111111111110
10111101100001110001010000010110
10111111001101100010100101110111
00111111100001111110100000010001
10111110000100010011101010010111
10111111000011100101001000010100
10111110100110000010110101010101
10111110100110010111011010110001
10111110101000110010010001001101
10111111000011111101101000000100
10111111000000001011001111000111
10111111001011111010010111110011
10111111000001101010001000101101
10111110001001010010010001110001
10111111000000010100100101110110
10111111000111011001011111011011
10111110110010101011001010011101
10111111000001010101001110000000
10111111000101111011110010000011
00111111010011101010111001000010
10111110011011001101000000001110
10111110110011100010100110010001
10111111010111010100110101011101
10111100111001111111010100111001
10111111010000100010111111001010
10111111010110101011100010101111
10111111011101101101000011001001
10111111010000111101110001001011
00111110010110001110010001010110
10111111000111101010001101110100
10111101100110101101010101000100
10111111001011101111111011100010
10111111000101101110101101100101
10111111000010001100110100100000
10111111001110001110100010010111
10111111001011001110000000110010
10111111000110000100001100101001
10111111010010110000010011000000
10111111000010111111010110110100
10111110101001000101110111011111
00111111011000100001011110010010
10111110110111101101000010011100
00111110100100100100001000100010
10111111010000010011011001101000
00111110011000111111011010010001
10111111011011100111011001010100
10111111100010000111001110000101
10111111011111101101101011100100
10111111011101001111100011110100
10111111010001010101000100110111
10111111001111011000000010000010
10111110110001000111101010111001
10111111010000011101010110001011
10111110101001111111000110000100
10111111001000100001101010111100
10111110001011101000001011000100
10111111000010011001101011000101
10111110111011010111111010011101
10111110110010000011010000011000
10111111000010000100010000100011
00111111000001000100111001000101
10111110110100000010010101100010
10111111010011101100100111010110
10111111010011001111110110100111
10111111001001101011000100010001
10111111011010011010000101101111
10111111001001101011001110101110
10111101110010000111011000101010
10111111001100111101000000010011
10111111011011001101001111001001
00111111001110011001000100011011
10111110111011101101001110101010
10111110101110111110000000101111
10111110100111110101000111100101
10111110110101110100111000010111
10111110110101111000010101001000
10111110110101010010010000001101
10111110000010000111101100011100
10111110001010010100000111101111
00111110011010001100000101011100
10111110110000010010001011010011
10111100000100100101011100110100
10111111000011100000111000100011
10111110110101101101010011010011
10111111011010011101110110000100
10111111010110111101101110100100
10111110111101110011001011000000
10111111011110110001100101110011
00111111010111110101101111000100
10111111010011000001100001000100
10111110100100000100010001010010
10111110111001011110001010101110
10111110010100100100001110010111
10111111000111011101010001001100
10111110111111100010010001110011
10111111010000010110011101101011
10111111010010010101011100110011
10111110110111010111001011110100
10111111000110110011010001010010
00111110010100111001100101001110
10111111001111101000111001011010
10111111011000101101111111101100
10111111001101110010100101000100
00111101110001101011001101100100
10111110101100111111010010010010
10111110011111001011110011110111
10111111000110101111111011000001
10111111000001000000000101010011
10111110101011101111111000100110
10111110100111101100000011011111
00111110111101010111111100000101
10111111001101110011111111001001
10111111011110111100100000000111
10111110000010000010011101100110
10111111100100110001110011000010
10111111010011010001001001011011
10111111011110110011101010001000
10111111100000100010000101010111
10111111100010101100011111110001
10111111011000100110100100110101
10111111100001110001101100110001
00111110110010111001101110011111
10111111011001100000010100111111
10111111000000001001000100101111
10111111000110110100011110000101
00111110001010000101000001110101
10111111011111000110001111100100
10111110000001111010100001010101
10111111011001000010110000111110
10111111010110000100011111101100
10111111001110100100001010000100
10111111001010001001010001000000
10111110010100111101100001100000
10111111000010111011010101001011
10111110000000101011111000110001
10111111000010100110011111011101
10111111010001010110111101110111
10111110000011111001110111101011
10111111010011000000110101000000
10111111001100010111010010100011
10111111010001010011101010010101
10111111010111000110011110110101
10111111100011110011111111100010
10111111001111011011101001010111
10111111010010100000010000101011
10111111000101100011000100100100
10111111100111101100111101011011
10111100110100001100101000010010
10111111011011000001101111000111
10111110001101011101110101110101
10111111010111000000101111000001
10111111010101110100001110111000
10111111100110101010000010000000
10111111111001001111110010011001
11000000000101111011111010010100
11000000001010000010000111101010
11000000000101011010110101000110
11000000000111100110111111000000
11000000001000111111001110001110
11000000000111001011000000001100
10111111100011101110000101011111
10111111111011010000010101011100
10111110101010111100101110110111
10111110101000000001000010011110
10111110110000011000011010110010
10111111000100001010001110111001
00111110111101110111100100010110
10111111010101111101101011100101
10111111000000110110110101001011
10111111010001011011000100000110
10111110011100101111101010100010
10111110101111010110110011110111
10111110101000110011101101001101
10111110001000000100001100010111
00111110110000001111001110100001
10111111010001010000110100001111
10111110110110100010000001001000
00111111010011100010101011011011
10111110011111110100101110000000
10111110110001110000001001110000
10111110100010001010011101101010
10111110011001011111110110111110
00111101101000100011011010011011
10111110101111000010010001000101
10111110011000100000110001111110
10111110110111010011111011011001
10111110110001000011100111010010
10111111001110001001011001010100
10111110101100010111100101011111
10111110100101001100100011110011
10111111000101111110001110101111
10111111000001010011110000001110
10111111001011110010110011101111
10111110110110100111100101110100
10111111100011001100110000111011
10111111010100111101000101010000
00111110101111111100001100111100
10111111001001010000111101010100
10111110111010001001110110110111
00111110101001001000010010110100
10111110111000110101001101100111
10111110110111100100100000000000
10111110001110001101110101010011
10111110001011001101010100111111
00111110111110001010000011110000
10111110001001001001111001010001
10111110100011100111011011110110
10111110101011100100011110010110
10111110001110011000001000010100
10111110010010001110010000010011
10111110011000101101001111101001
10111110010100111100010100111011
10111111000110110000011010000100
10111111010010010111110000011000
10111111010000010101101100010111
10111111010010001111011011110101
10111111010010101111001111011010
10111110000111110111100110010100
10111111011110100010101000011100
10111110101111001010010100000011
10111111010101111000110100010101
10111111001101010100000101011011
10111110101100011010101100000001
10111111100001010111101111001100
10111110111001001111101011100011
10111111011110111110011101011101
10111111100110000110100010010101
10111111101000111000011110011101
10111111100100101101101010011011
10111111101000101000010010011111
10111110101100000111000000010011
10111111100000010100011010000110
00111100110010001111000110100001
10111111000000000010110100011111
10111111010111101001010000000001
10111111010000110100000101110000
10111111001101011010001111001101
10111111001101101011000110100110
10111111010101001110110110110111
10111111010000001001010001100011
10111100110010101111100010110001
10111110100100000001011010000100
10111011010100101010110000110111
00111111010011100110010101100100
10111110110110011100101100110001
10111110011001010010011010000101
10111110100100110000101010001111
10111110111101010011110011000100
10111110010100000100011001001011
10111110111011110100111100001001
10111110101000111101101000100010
10111111001001100111001101001101
10111110011000111001010010011110
10111111000001101010101101011111
10111111000001011000111100111111
10111101110000111111000100111110
10111110101000011101011000110100
10111111000000010011100111111011
10111110101101001000001101001100
00111100110011101110011001110111
10111111000011000001011111111111
10111110111100011011101101101110
10111101011101110111010101000110
00111110001011001100100000000100
10111111010101101000101011110011
10111111010000010011011100000001
10111111100101110011001011110000
10111111010001110011111001000110
10111111100001100110001101100100
10111111100000110001010101101001
10111111100110000010101110010010
10111111010010011010000101101100
10111110110101100011000100000001
10111110110000000000100000100100
10111110110000010011011001110100
10111111001101010010000010000101
10111110000101100100011000000010
10111111001011100011001101110001
10111110101101010001001110101011
00111111010111110101001011111011
10111110110011100100111000110011
10111110111101001010001010111001
10111110110000101100100010011100
10111110011011001001000001010101
10111111000000111011101101101011
10111111010111011001110010010100
10111111010000000011110101011110
10111111001111011000001110010010
00111111100100111011010101100111
10111110110101100010010101110010
10111110110011001001001000100100
10111110101001000011000111001011
10111111101001110111010100000101
10111111100110001001011001001110
10111111111100100010101010110010
10111111100001111100101100010011
10111111100000111001110001110101
10111110010001101011011110100000
10111111110110100110011111010101
10111111000010111100001100110000
10111111100101011001111101001101
10111111100111111000000001100101
10111110010011010011001110011000
10111110010001101011011000000111
10111111001001000011000100110001
10111111010000011100001101001001
10111111000000000111101010010110
10111111000000001111110101100011
00111100111000100000110000011010
00111110111000001111110011111100
10111110111111000011110111101001
10111110110000000111011110000001
10111111100000111111101101110011
10111111001011010011001111011110
10111110100110110010011001011001
10111111100111111101001000000010
10111110101110100001001101111001
10111111001011101111100101001010
10111111011100100111111110110000
10111111001100001110111110001010
10111111001101110000001110011001
10111111000100011001111001111010
10111111100001101101001011100110
10111101110100001001010110110010
10111111100001011011001101000010
10111110101101001010111110010000
10111111000101100011110111100111
10111111001100111011010011110011
10111111011111001001110011010010
10111111010001001010111001100110
10111111010111110101111111111100
10111111010011110011100101110001
00111010110100101110000010001100
10111111010011010111011001000000
10111111000110100111100110110100
10111111100001101110000001100110
10111111011011110110110011011100
10111111011010101111011000011111
10111101110111010001100010100111
10111111011100011000000001100001
10111111010011010100101000001100
10111111000100000100010010000010
10111111010110101111001011111000
10111111011001111001100000100011
10111101100110000111101011100000
10111111100010010100001111100011
00111100110101100010001010111011
10111111011011100000101101100100
10111111010000110101101011101101
10111111001011001011100000001100
10111111011101101011011111111010
10111111010111000010101011000000
10111111001101000011100011101001
10111111010100011111001101001010
10111111000010011111101010100101
10111111000011001000001100101111
10111111001101101011111100000010
10111111000001110101101100001110
10111111010001000001010100111110
10111110110000111000100010001001
10111111000110001000111000101010
00111111001001101011111001110111
10111110110100001111110110000101
10111110101100111101101100111011
10111110111001111100111011001000
10111110110110110100010010010000
00111111010101110001000010111001
10111110101001111010001010000011
10111111000110110100001110110100
10111110001100010111111000010001
10111110111111010010110000011000
10111101110100100010000110101011
10111001100101011011000111010011
10111001110100011010000101110000
10111011101111101100101000011101
10111011000010100110011110010001
00111010101000100011101000110110
10111011110000110001110011101001
10111011100111001101001010000111
00111100011000000010000110101000
10111011100100000000110100000110
00111011100111001110011110101010
10111111010110001100001001001111
10111111100111011010101100011101
10111111100110100100011001101000
10111111001101011010001001011100
10111110001001110011011101111111
10111111100100011110110100101011
10111111100010001000110010011100
10111111101000000101011001110101
10111111100110001000101100110000
10111111100001010000001011011001
10111111001010011101111101111111
10111111010111110101100001111011
10111110101010011111110000011011
10111111000110001000101100100101
10111110110100010111101110100001
10111111000001110110000001011001
10111110110111111011100010010010
10111111000110110011111011111001
10111110110111110011111000100010
00111111011010000010001010110011
10111110000001111111110001000110
10111110111011000000111001110100
10111111000101001001001011111110
10111111000110100010110011001000
00111110111110010011100000001000
10111100111101110111110111110111
10111110111110011011110000000111
10111111000110111101110101001111
10111110101111000100101100110101
10111110100010011010011101011010
