01000100010110110001001101100000
01000100100001000110010111011000
01000100011010000010110001100000
01000100010111010101111001111111
01000100001111000100011101001101
01000100100001001010101111000010
01000100101000110111001011000111
01000100101001011011000101100001
01000100100111101001000111101000
01000100010011001111010110011011
01000100011100100010011011101001
01000100001101000110010101001110
01000100011101100011000000011100
01000100100000110001011001001101
01000100010100110010111101000111
01000100001100010111011101001110
01000100010100100010111110001011
01000100011111100111011100000011
01000100100111010101100010011001
01000100100111101111000111000110
01000100100100110011100001111101
01000100010100000100110001111011
01000100010001101001001111011101
01000100011101001011110001000111
01000100001111001001011101111001
01000100011010110000011011100110
01000100100010111111111111011101
01000100011100100111111101111010
01000100110111011001101000110001
01000100001100101011101001010110
01000100100010001111011110010100
01000100010011100111101011111111
