10111111111110101000110001101111
10111110100111010101100111100011
10111101101110011001010000110111
10111111000100101100110011011100
00111101010011101100000011101011
11000000001101011111010000000011
00111100100011011100010000101000
10111011001010110111001001000010
10111101101101011100010100010110
11000000001100010100000011100100
10111111100010111110011101111000
10111111011111110001010100000111
00111111011000001000100100101110
00111111011111000110101110010010
11000000011110110010110011110101
00111100100111001100011011011110
00111111000100110110000110111111
11000000010101100101000100101010
00111101001001000100101111011011
00111111010011011111011100100110
11000000001100111000110000011111
10111101000101010101100110100000
10111101001010010110100000011010
11000000010011111001110000100000
11000000000001101001011100111000
11000000001111111101111100010111
11000000000010001000111100110000
10111101110010100101011001101110
11000000001010010000100100011111
10111100111110100010000100001100
10111110100111111000101011111101
10111111111111111110100011011001
00111110100000100001000001101010
10111111110011101100010110011100
10111111111010010101000000101001
10111101100110011000111110110011
00111101101110011100010101101000
10111111101101011000010001100000
00111111011010011111000000011011
10111110101111011111101110011110
00111100101101011100110111000111
10111101000110000101110010011010
10111111101111101010000100010101
11000000000001001000001101110101
00111111011000010100101100000101
00111110101101011011101101110011
10111111100111110110010100111011
00111110000100111110101011111111
00111111011110011111100110011010
10111110110100001010000011001100
10111111110101010010010001101111
10111111010001010101001101010001
11000000010011010011101101101111
10111111110010110000110011101000
11000000000001111100010100010011
11000000000110001111111011100011
10111111001101111101000111010001
10111110111010000111000100000011
10111101000100010001000111001101
00111111001111000101011111100011
10111111011101111111001110101101
11000000000010011010111101101001
11000000001011110100101010011000
10111110000101100101110000001010
