10111111110000110110011110001011
10111111100110010001110001010010
10111110010101010100010010101110
10111111011100000001001011001110
10111111110000110100110001000010
10111110001111001110101011010101
10111111010110010001111110010111
10111111011001000101101010100100
10111111000110011011000010100000
01000000000000011001101101001101
00111110110001011110101100011001
10111111011001111010110010000000
10111111011010100011011000010111
10111111101010011011110011101101
11000000000001011010110000011101
10111111111011010010010011001001
10111111110111001101000011110111
10111111110110110010010001100111
10111111100111111100101110111111
10111111010100111100111101011100
10111111111011001100001100010011
10111111111110100100101000100011
10111111100011010010001000111111
10111111101000000100001011111010
10111111101011110110001010100000
10111111110100101000010001111111
10111111000011001111100010101101
10111100100001101101110010010010
10111111101010110100111010010010
10111111101111001100110001111110
11000000000010110111011110011100
00111100101000100000101011010000
10111111100001101100001100011110
10111111011111111010011110101111
10111111010101111010010110001101
10111111001110000001101110110001
10111111100001011110011001000110
10111111011001100101100111010011
00111111010110011000110110101010
10111111001100010100100110000001
10111111111011100000010011000110
10111111100000101100101010100011
10111111110101001000110001110001
10111111111010010000101001101111
10111111001101011000001100111101
10111101111011001011000010001100
10111111111110100000111010110000
10111111110110110111011011000000
10111111110011000101110000101111
00111110100001111010101010000000
10111111010110010110100001010101
10111111101111010100010110010000
00111111010100101100100100000011
10111111100010110010101000110111
00111110000100011111101011101010
10111111010001110001100100101010
10111111001000110100011000101111
10111111010111101111100110011000
10111110110000011101001101011011
11000000000101100111001111111010
11000000010110101001110001010010
00111111000101100010000110000000
10111111100001010011111010011100
10111111111110110110001101110101
