01000010010000011001011100010101
11000001110010111111011111010000
11000001100010100111100011100000
11000001101000010010000100011110
11000010001110100100011100100001
00111111011010101111000001001000
11000010000011101011101000111010
11000010100011000001011100110100
11000010000000001011010011100101
01000010001111100111010011101000
11000001001000110110100101111111
11000001000010011110101111111000
11000001001111100110101111010010
11000001011111000001010111011000
11000010100011001001000111110101
11000010000110110010110011010110
01000000101101011000001111010011
11000001111000010101010000101100
11000010001100000001111110000011
01000001001110001110110100011000
11000001100011101001110100001001
11000010011111101111010111001110
11000010010011100001111001110100
01000010101001001101010010100000
11000010000011011011110100100011
01000000101001001010010101010011
11000010010000011100001101001010
11000001010001111101000010101101
01000010001001000111111100000111
01000001001000110110100011100110
11000000101101110101000111110111
11000001111101101101100011011100
