01000000101000110000101000000110
10111011111111011010101011110101
10111111101000011100101100111001
10111110101101000001110111111011
01000000000000111101110101010110
01000000110010110111111110110001
10111111011100001010100110111000
01000000000111100000011011110010
01000000101010101011101110110011
10111111110100001010010011010010
01000000010011111101111001000000
10111110101111100111110111111101
11000000100100101010110001110110
11000000000010011001101111010011
00111111010010000000001011001000
01000001000010100001101101111011
11000000111101000010000001001000
10111110111101101101110001110100
11000001000011001011110101110011
01000000100101011100011001101111
00111111100010101011000101010011
01000000100011001010011000000100
11000000010100100011011111101001
01000000111011101101010101111101
11000000100100010111000110001000
11000000100000011001101100100111
01000000100001001111000000011010
10111111100000010101000110010101
01000001001100011100101111011001
11000001010100000100001001100001
10111111100000110010001000011110
01000001000111111001011111100111
