01000000000011001011111001011011
01000000001001110010111011011011
00111111101011001000111000011111
00111111011111111010110101001010
01000000000010011010101101100001
00111111111010110011010000001101
01000000010101100101010110010010
01000000000110101110011100011100
01000000001000111001110111111000
00111111011100111110101101100111
01000000000110001001010011110000
00111111111100010100011001100001
00111111111111000100101010111001
00111111010010011000000111110001
01000000010001001111000010010001
01000000000110110110000110010011
01000000000111000010111110100000
01000000001100001111010101011101
01000000001010001101011000111111
00111111111101001101011110010001
01000000000110010000000101111111
01000000000111001101110000000011
01000000001101111100100001010000
01000000010100010001101001110010
01000000001100101100110111101000
01000000001001000001100111111101
00111111101101010110001100101101
01000000010010111101011010010000
01000000000111111001011010011011
01000000000010111001100010110010
01000000000011101100100101100000
00111111101101110100100110100000
01000000001111110010000101101000
01000000001110011000110111011111
01000000000010101001111101110100
00111111100101011011101101100101
01000000000101101001000001001010
01000000000110100111101100000111
01000000001111110110011110111111
01000000000101100000011111000011
01000000100001000000010100110100
01000000000011100101011010101001
00111111100111111011011110010010
01000000010100111010110101011010
01000000011100001001001001101000
01000000001100011100011111110011
01000000000010110010111010010010
01000000010000001011000011001100
01000000011101001100000001010101
01000000010000101100000010110100
00111111110110100001110010110110
01000000010011011011001001001100
00111111101010101011010010111001
01000000011110101101111000011111
01000000001111001000111101101111
01000000001001001000011001000111
01000000000010001111110100101000
01000000000000010011000101010110
01000000001001011110100100110001
01000000000100001110010111010001
00111111100011100110110010100011
01000000001110010001000111111011
01000000000101110111101101100000
01000000001000000101100101111100
