00111111101011011110110011000101
00111111101001010001001100110101
00111111100011001111001010011001
00111111110010000011000011110101
00111111110100111110001110001110
00111111110010001100001100001000
00111111100111000011110000101110
00111111011100000000011011111111
00111111101101110000110010100111
00111111101000110000001011000010
00111111101010101100101001001110
00111111101011100110110001100111
00111111101001110000001101111110
00111111111001011011011111110111
00111111010000100101000111001000
00111111001011111011011111001111
00111111100001101100011010010111
00111111110111011101010100001110
01000000000110011110010111011000
00111111110101111001100000111001
00111111111000000110100011110110
00111111000110011111101000111111
00111111110111101011100100110111
00111111101000011011100110101100
00111111100110111010001111000111
00111111010000101001110111100010
00111111010001101001010011001111
00111111100100001110001101110100
00111111111011001100010110110001
00111111110011111000011101110001
00111111100010111000000110111101
00111111111101011101011100110001
