11000010000101110001011011000001
01000001111111100101010000000001
11000001101010111111110111011101
11000010001011010101001000100011
11000010001100000010001111001101
11000010000010010000010011000101
11000000111100010101100101011001
11000001001010000110010011110111
10111111000110001100100111110011
11000001111111000011100011010110
11000010001011100000000010011110
00111111110110010100010110000111
11000001101111100110110001010100
11000010001100100100110011010010
11000001011101010001111111011101
11000001110000101010101100111101
01000001011111010110011100001100
01000010000010011101010001010111
11000001100001010111000011010110
11000000001111100110000100101100
11000001001101011111000011101000
11000010000101011111110101000001
11000001001111010111000001110100
11000000111100000111100000100011
11000010010011000000000101011000
11000001110110110100000111110111
11000010011101011000100001101010
11000000111001010011010111100001
01000010000111101110100100110100
11000001101100000110110100001100
11000001100011110011110111011001
01000000010001111001101000110101
11000001110001001001111111110010
01000001100011001011011101111101
11000001001110101000000010100011
11000010001001011010011110010111
11000001001011100010010010011011
01000001110001001110001000000001
11000010011001000011100111001010
01000010000000001010001001001101
01000010001011011010011001111101
11000001110111111010101101011110
01000000010000000011101010000100
10111110011010100011000111111111
01000010000001100010101101001101
01000001010000100111010110010000
11000000110001111101011110101100
11000001010100001110001000001010
11000010001000001110111010101010
11000000000110000011001110000101
11000010100011100011001001101011
01000001000111101110111101111010
11000010100101011000100111000001
11000001110100100001011001110010
01000000101100000011111011011110
11000010000111001010101010011111
01000001010000100011111010101100
01000001001110001011000110000000
11000001101010000010000110010111
11000001110000000010010111111110
01000001010011011000001010001101
11000010010000000011000110110000
11000010000011110111100001100100
01000001100011001011010011010100
