01000000000001000000010010111001
00111111010001111010001111100000
00111111011110010101110101111010
00111111100111010100011010000010
00111111101111011000001011000110
00111111010010110001011111101110
00111111111001001101001001100010
00111111111101101110001001000011
00111111100001001011101110001111
00111111101110100101100101110001
00111111100011111100111101011101
00111111100011000101111001111110
00111111101010111001100110111101
00111111011111010100011110000100
01000000011011001011011010010011
00111111110100101000101011110011
00111111011100111101000111110011
00111111110011000000101001010100
00111111110010011011101101111100
00111111100000001101000001110011
00111111110010100100101001000111
00111111110000000110000000110011
00111111011011101110010111010111
01000000000001011010001011110110
00111111101010010000100110100000
00111111011110011000010010110101
00111111100111010110010110100110
00111111001000100101010100000000
00111111011011010000001011100010
00111111110010001100011101101001
00111111011011010111011110101110
00111111110001010001110011110001
