01000010001000010101010000101101
01000010001101101001101110110110
01000001100100000110110101011101
01000001111000100000110000000100
01000010000010010011111110110001
01000001100010011110110000100011
01000001111010000010011001000010
01000001111011111010101010100110
01000010100111010110111001010001
01000010001001011000000011011001
01000001101100101110001010111101
01000001110001101001111001011111
01000001110101010100011101000010
01000001111110010110010010000100
01000000100100100010010010001100
01000001001111111101011000111111
01000001101110011011110000010011
01000001110001110101111101000010
01000001110100110101111111101111
01000001110011000011000110111110
01000010011100100111001100001100
01000001010011101010001010101111
01000001101100111101101100101011
01000001111000111111011101111000
01000001001010000101011000011011
01000001001111011101111011101100
01000001011100111011011101101001
01000001101010011111001100111101
01000001101000101001011000100010
01000001011110001101111101010010
01000010000111110111010110001010
01000001010101000011110010001101
