01000001010010110100100000111001
01000001100100000011010010001101
01000001101110110000001110101110
01000001111000011001001100010001
01000001100100111101000000000100
01000001101111110100111101100010
01000001111011000111111001000010
01000010000011000110000111111100
01000001011011100000100110101010
01000001100001111101011000010101
01000001111011001111001001000001
01000010000111000001111011011101
01000001110111101100010000010101
01000001101100001111011111101010
01000001111101111001001010011011
01000001011110101101111000000110
01000001010001001010110100010000
01000001011100001101010011100101
01000001100111000010000000010010
01000001111110011011110111011100
01000001101001000101100010000100
01000001000000011011010111100110
01000010001111101111000101011000
01000001100111101000101011101001
01000001110011111101010001110111
01000001011000000001001101110001
01000001100000110100001100100111
01000010000001011101011010111111
01000001100001101100011101000101
01000010001101010011111000001010
01000001110000010111101001100000
01000001111001100000110001101100
01000001111000101001000110011101
01000001110100100101110111111011
01000010000110000101111110011010
01000001110100101011001001001001
01000001010110100011000000000100
01000001111010110000000010111000
01000010000000101000011011000111
01000001001111001101001010011110
01000001101011101000011011110000
01000001100000110011100001110000
01000001101000010010000000101110
01000001001110010001001100001101
01000001100011101110101100101111
01000001100101000110100110011000
01000001011000110010111110010101
01000001011001011010100111001010
01000001001011010000001010100110
01000010001110000110010111100001
01000001110011101001001111110010
01000010000000110100110100100101
01000001101001100101000001011111
01000001110011001110000111100110
01000001011001011001010100010000
01000001101010110110011011000010
01000001101101101111100101101111
01000001111110000010010001001011
01000001010110001100000010010010
01000001101110001100001101111010
01000001000011101001101000110111
01000001100011101110100000110011
01000001011111110000010110010101
01000001111111100000001000111111
