11000000000111000100000111010111
10111111110010100001001100100101
10111111111101011010101111110001
11000000000100000110010111001100
10111111101101100101011011100111
10111111000111001001101011101000
10111111101011101100100001110100
10111111000110100000101100111011
10111111101010001011000100110000
11000000001101011001011011101101
10111111000011101100110101111111
11000000000000000010001000101000
10111111101100010111111110111100
10111111010001111111000110001111
10111111111001001111011111101100
10111111000011010010101111010111
11000000000001111111001100101010
10111111100001010110011110001101
10111111110111101110011010000010
10111111100010101110100000100011
10111111111110000110110111101000
10111111111111011001010010010000
10111111001010000101101110100101
10111111111110100011101001001101
10111111101101010000000110010111
10111111000000001000000001011100
10111111101110101011000110111101
10111111100001011010000011101111
11000000000110000000100101101101
10111110111001110010101100011110
11000000000011111001010110000001
10111111110100010000111100110000
11000000000010011001000001100000
10111111000110101101000111000110
10111111111101011011011000111101
11000000000100110110100110100111
10111101100011010010110101010010
10111111101000100111001010110110
10111110101011000000001110110011
10111111100111101011100101111011
10111111101000011001101011101100
10111111010001111101000010001011
10111111111100101100110101110100
10111111110011011011101110000010
11000000000110000001100001010000
10111111110111110001000001010111
10111111001010110001000100011010
10111111111110001000101111011100
10111111001111100110001001011010
11000000000001100100111001101010
11000000000101010011010110000111
10111111100001010110111010001000
10111111110000110111110010010000
11000000001001100001001111100100
10111111111001110010111100011011
11000000001101111001011111001100
10111111101010010101110010010111
10111111110011101111010101101011
11000000000001001000010100101001
10111111110101101110111101101001
11000000000101010010110100111101
10111110011101001001111010001101
10111111001011011011001110011000
11000000000010101100000010010010
