01000000101100101001100111101110
01000000100101110111101001001001
01000000110100110100110000110110
01000000100010001101101111110000
01000000101100010111000111101101
01000000101001111000001011101011
01000000011010101010011001101000
01000000101011001001001100010001
01000000100111000100111110000100
01000000101010111110111010001110
01000000100000101010110000010110
01000000011001111101010111111000
01000000100010010111111010100100
01000000100100011000100110111010
01000000110000110011000000001001
01000000101111011111111100011000
01000000101101100000110100010010
01000000101101101101101001001001
01000000100110111100011001011010
01000000101100110011111011001100
01000000110100110001011101001100
01000000101001010110111000100011
01000000100000101000111100010111
01000000101110010110101100010010
01000000101010111001100011010001
01000000101011001100111010010000
01000000101001101001000011010001
01000000110001100010110001110011
01000000101001110101001111111011
01000000100011111101111101001010
01000000100101110000010010101010
01000000000101011111100000010101
01000000100010001000100001111011
01000000101011011111100001111000
01000000100110111010111000101100
01000000100011111000010000110000
01000000101000111101110101000000
01000000110000101101110001110110
01000000100010010011111001010000
01000000100100011001000100110111
01000000110110110010110010111110
01000000100100011000101010011011
01000000110001110101100001001111
01000000101011001110010110010110
01000000100100010110101010001101
01000000100111111011010110111110
01000000110100011110100110101111
01000000110100001110000010100000
01000000100000010000110010111101
01000000010111001111111001001111
01000000101000010100011110100110
01000000110000001010101110111010
01000000100111111100101111110001
01000000100010100010110011000010
01000000010110100000110011111000
01000000100100111010011001111001
01000000101001011000100100011101
01000000100111111110110001111100
01000000100111011110000001101001
01000000110000011001001111010101
01000000001110010001010111100100
01000000100000001101001111111011
01000000101010011110001011011000
01000000101110010000100100110100
