11000001111010011100000001100001
01000001101001010011100111010110
00111111101001000001110111111110
01000001100100111100010110110100
11000001010011011101111110110011
01000001111001110000001001100101
01000001100111011011110011011000
11000010000011011101011010111100
11000001110000000111011111011000
11000001101111011011001010011000
11000001101001100110110011001101
01000000000101011101101000000010
11000010010100111010011111001111
11000010000000000001000001100110
11000000111000010101000101011000
01000001101001011011010001010100
11000001111010111111111010000110
01000001110010100011011010000011
11000001101101101001011010001000
11000001101011000010111011011101
11000010001001011100011011100111
00111110001111000010011011100011
11000001111000100110101100110110
11000001100010010010100011110010
11000001100000100001111010001010
11000001000001111011110101011001
01000001101011111101110111000101
01000001110111011010100011010101
11000000110011101110001000101011
01000001000100111000010001011110
10111111101100101010111110111110
01000000100000101010011010001000
