01000000000000100010000110101011
01000000001000000001101110110001
01000000010110001000100111001110
01000000010111011111000110010000
01000000011100000011111000011110
01000000000111101110010011011001
01000000011101010000000010100110
01000000011010111101011001000100
01000000001100010100011101010100
01000000001100111110110001000010
01000000100101111111010110111101
01000000100011111011110011011100
01000000100010011100111011001001
01000000010100110111111011011011
01000000100001100010101100000001
01000000000110100100000111100001
00111111111110001000101011111010
01000000010000010101010000001001
01000000011110011111000010100101
01000000100011100000110011111001
01000000010001110101111111010110
01000000000101001100001010011011
01000000101010101001100101001110
01000000001100010100110111001110
01000000100000111011100010110000
01000000010001000001111111011101
00111111111011100101101111000011
01000000011000100110111101111101
01000000001100100011001110100001
01000000100101001111000001101100
01000000011100110111010010001101
01000000010100111101011110000000
01000000011101011111011001010011
01000000001111101010000000111111
01000000100100010110100010001000
01000000100000010101101101010000
01000000010000101110001101101011
01000000011111100000110001000101
01000000100101001000011111000111
01000000000011100011011111000100
01000000010001011011010101101001
01000000010100100011001100010010
01000000010000001110101000101110
01000000000001101000010010100110
01000000000100000010011001111100
01000000010111001100111111000111
01000000001001100010111001000100
01000000001110111110111001100000
00111111111111111010011001011110
01000000100110011001100111110110
01000000100001101100111000000010
01000000100010011010000010101101
01000000011101101111011101001000
01000000010011101101101011000010
00111111111110110011101001100111
01000000010011000010110001001110
01000000001000001110110100010111
01000000100100011101100111011100
01000000000001100111001010111010
01000000011011011101011001110011
00111111110100011000000001111100
01000000010000100111010110011111
01000000001111011000110001100100
01000000010110000000100000111000
