11000000000011000100011011000010
00111110011001111100010110111101
10111111110111100100101111010100
11000000001000000100101100100100
10111111101101011001010001101001
10111111110101011011110000000011
00111111010111000011001000000011
00111110111101110010100111000001
10111111010011100010101010100101
11000000001001110000010110101011
11000000011001010001011111111100
00111111000110010011101011000111
10111111101000100001100000110010
11000000001010010011000110111000
00111111110111001001000011100001
00111110101100011110110010001001
10111111101110011100111011110001
10111111100000101001100001001111
11000000001001111101001001010101
11000000000111001000110111100010
00111111111010010000011101111101
00111111000011100100110100000010
00111110100010001100100101100110
11000000000100010100110110011101
00111101001101100010111010111011
11000000000101110101100110101001
00111111100110111111111001011000
00111101001100000001100101000000
10111100111100011111101000011111
11000000010010011111010101010000
10111111010011100111001111110110
11000000001110010000011011110000
