10111111000110001110011000111010
11000000001011110011100111001101
10111111111010010111011000100010
10111111100100001000011111000010
10111100011001101011000000100101
10111110000010001001111010101011
10111111101100000110010111000001
00111101101110001111100010111001
10111110010111000111110011110101
10111111100011100011111001011101
11000000000101010000111111101010
00111111100110010111111000100011
00111110011001001011011010111110
11000000000110001000110010011001
11000000000011110001010001000100
00111110110000100110000010101011
11000000001001101101111010001010
11000000010101101100110000000010
10111111101111000010110011110010
10111111101001011010001100011001
11000000100100110001000100010101
11000000000001111010001100111001
10111111110110001111110100101110
10111111100111000111010111000011
00111101010110101011110110010111
10111111110011011110100010111001
10111110001010001100111011111000
00111111101001110011110110000101
10111111111001100110110110010101
00111111110111100000010101001100
11000000000110011010111110111110
10111101100110111010110111100001
