01000001110000011010111101010001
01000001101111000110110010011011
01000001001001000101000110010110
01000001000111100100000100001101
01000001100100000000100110011101
01000001001000100011001001100110
01000001001010100011011010000011
01000001010010100111110100111011
01000010010000000100011001000110
01000001101110100100111010011100
01000001010110010011100111011001
01000001000100110000111100100111
01000001000110000100011001100111
01000001011000110111001011001001
01000000100101001011101111010010
01000001010110000110100000100000
01000001001101010101010101100111
01000001100010011110111011101100
01000001110010110011101001011101
01000001010000101000100111110111
01000001100110100001110111010110
01000001000011000111001001001110
01000001100000010111100111010010
01000001010110001110001011011001
01000001000110110111000000000101
01000000101010011101110111001110
01000001001110111001110111110001
01000001000110011111111110100111
01000000100100100101110100001000
01000001001110011101110000101000
01000001100001101111000100111011
01000001000011100100000000001110
