01000100111011110000101011110101
01000100111010011111111101011001
01000101000000000111000000000001
01000100110111101010000110100011
01000100110001111010101100101111
01000101000101011001010001111001
01000100110111011101001111010000
01000100111110110100101100011101
01000100110100011001110011010110
01000101000001101000000011110100
01000101000011010010100101100011
01000101000100111010011010011001
01000101000001100101110101100010
01000101001001101010011110010110
01000101001011110010001001101010
01000100111101101100111101101001
01000101001100101000000110110101
01000100111111011000000001010000
01000100110001111001010111100011
01000101000010001010011001000100
01000101011110000100100100100000
01000101001011001101111100111110
01000101010001101101001011000011
01000101000101001001000110000010
01000100111011010001010000000101
01000100110111100101000101000011
01000101000000111101110101010010
01000101001001010001001011100110
01000101000111101111101100000111
01000100110010000110001001010111
01000100110110011100011100011010
01000101001010010010011010110000
