01000000000110000110110100110011
10111110111101001000000101011110
10111111100011000001010111011011
10111111100100000100000110000101
00111110101101100111000111101001
00111111111001111010111111000010
00111101110101100000000110101100
00111111100110010101010011100011
01000000000010100101010011111100
10111111101001010101010100001001
10111110100001111110100100011010
00111110001011010100100110101001
10111111110011011010111010001010
10111111100001110010011000111110
10111101010100100011111001010001
01000000001100011001010010100100
11000000000011110110010001111110
10111111011000001011110011001001
11000000100011000111110000001001
00111111111010110001101110101010
00111111001111111000001101001101
00111111110110111011100011110000
10111111100011110000010010010001
01000000001011010111000100011100
10111111111011010011100100011011
11000000000000001011010100100101
00111111110100000000111010111000
10111101001001110110000101000110
01000000100010101011000100101101
11000000100111011100110100110100
00111110100010111000000111011001
01000000100100010001111111000111
