01000010000000011111001001000000
01000010000011011110001000011011
01000001010011000100000011110101
01000001011000100011110100100111
01000001101110000111010110111010
01000001001011111111010100101100
01000001011100110110110111010000
01000001011111101010110110100100
01000010011001100101110110110100
01000001111110111110011100111111
01000001100011101001101101100011
01000001011011101000001000110000
01000001001110111100100101010100
01000001100101111001011001100111
01000000100000011001110000100111
01000001001101001100100001111110
01000001010111101010000110011001
01000001110001000111101010111001
01000001111010111101010010100001
01000001010101010011101101111011
01000010010100010101111100110110
01000001000000100000100101111011
01000001100001011111100001111110
01000001101000110110111100011011
01000001000011111001100110100000
01000000110001011101111100111010
01000001011111011110101000100001
01000001100000000010110000011011
01000000111100000011001001111111
01000001010011110111101111100011
01000001110000101111001000111011
01000001001011010000110010101010
