01000000011011110100000010110001
10111110011110000111011111011001
10111111100101101111000010000111
10111111001111010100100100010111
00111111100110101010101110111000
01000000100000101011010111000111
10111110110101011110100101101010
00111111111010101011000101000101
01000000011011111110011000110001
10111111101110101111110011100111
00111111101111101110000100101011
10111101110011111011001101111100
11000000010001100001100000011111
10111111110011010010111011001010
00111110101110101101110000001111
01000000101101101000000010101110
11000000100111011110100101000011
10111111001011100001010101101101
11000000110100101111101110000011
01000000010100001000110101110010
00111111011010100111001011001001
01000000010000111001010001100001
11000000000011001101110100101101
01000000101000101100011011111101
11000000010011001011111111001011
11000000010000011111010110110000
01000000001110001111001111000101
10111111000001101000101111001010
01000000111101110010010000110100
11000001000011111001010001111101
10111110110000001000001110011000
01000000111010000010011111011101
