00111111101111001101100000010000
00111111101101010111011011000010
00111111110010011100110100010000
00111111100010010001101011111100
00111110110001010110010000100100
00111110111000011001001101011111
00111111101110011001011000110001
00111111011001011011001110001111
00111110111000110100110011011011
00111111100100110100000001011000
00111111110100011001101001100011
00111111110110110111100101010101
00111111100000001011111010110100
00111111111100100010111100000011
01000000001110111100110011011000
00111111100101111110101100000000
00111111111000001110011101101100
00111110110101010010101100011001
00111111110001010011101000100110
00111111111111101110101001010110
10111110101001011000100101100010
00111111110101000110000000110100
00111111111010101011001011010010
00111111101100000011101101100100
00111111011001000011010000101110
00111111101100100011110000010110
00111111101000010000011111101111
01000000000001110011010011011101
00111111111011000101001001111001
01000000010000001110011010111001
00111111110111010111010111111111
00111111010001000111000100010010
