11000001000000111101011011111000
11000001000010101010110110011110
11000001000001101110011101100110
11000001001000110011010001000101
11000001010000001111110000110111
11000001000100101110011101100000
11000001010001000101100011100000
11000001001111000101010110101011
11000001000111011111110001010111
11000000110011001010010100100100
11000000111011111001010101111101
11000000111111010100010111101011
11000001000101111011111101111101
11000000101110110001011001010000
11000001011001111100100001011100
11000001001101100001001111100010
11000000111010110011010100000011
11000001001111000010101101011001
11000001000101000100000111111000
11000001000111111100011110011101
11000001010001110000001100111010
11000000111111000010101001000100
11000001010000000011101000101100
11000001001010010101100001100000
11000001001011010111000001111100
11000000110111111011110011101000
11000001000110000010010010000111
11000001001110001001101000101000
11000000111111100000001101001010
11000001010110100000010110011110
11000001000001001000101010001010
11000001000100000110100000001101
11000001000010001101011010011111
11000001000101001000101101000111
11000001001000101101111000100011
11000001000001110100010000001001
11000000111000110010011110110110
11000001001010110110010010000001
11000000100011010001100010111111
11000000101111001000111100110001
11000001011000000010001010001111
11000000101111110011010101100001
11000001010100011010110000001011
11000000110011110111010100111100
11000000101100010111001100000110
11000000110010111011111001010000
11000001000110011110011100000111
11000001001101010111001100011100
11000000010111000100000111101010
11000001000110010011000011001010
11000001001001111011101110011010
11000001010110110100001101001111
11000000111010100100111101100010
11000001000100101010001101101100
11000000100100100011010101011111
11000000110100101000100110110000
11000001000011000010100100100110
11000001001000001001101000010101
11000000111010101111001111001101
11000001001100011001000001010110
11000000111100110100101101001001
11000000111011100100100010001000
11000001000011000000110110001011
11000001010111001101011000001100
