01000000001101010110111010010101
01000000001010000111101111011011
01000000011000011010101111111101
01000000000100001010011010110000
00111111100010110001001001111011
01000000001100011111111111111100
00111111110110111110110101011100
01000000000101110100011011000001
01000000001100001111011010001011
01000000000101000011010101100111
01000000000101000010110100110110
01000000000011001101010110101001
00111111101011000110011111010011
01000000000100011010101010101111
01000000001011011001010111011110
01000000001010000110011010101011
01000000000110010101001010010100
00111111101011011100100100101101
01000000001001000101111110100000
01000000000110000011110100101101
01000000000110110011110011111011
00111111011111110110010111111110
01000000010010110111001101111100
01000000000110010110111100111100
01000000000000000111111111101101
01000000000111000011100110110110
01000000001001110011110100000000
01000000000111010001010001110101
01000000000001000010000000000010
01000000001010111111100010100011
01000000000100100111100100101010
00111111001100110100010101011101
01000000001100110000111010000110
00111111111001101111110010101011
01000000000100001011110011001010
01000000001001011010000011100011
01000000000110101110100010001010
01000000010000101110010000101000
00111111011001001011001111101000
00111111110101011001100110000000
00111111111111100011111101001110
01000000000101101110000011111011
01000000001010011101111010000100
00111111110000011001101100000111
01000000001101000000001101100010
00111111010001000101100110011000
01000000000010011010000100111110
00111111111010011010000010010000
00111111110010100000110101001001
01000000000001110011000110011001
01000000000011001101010110111000
01000000001011110101011111011011
01000000001010110110100101001010
00111111010111011100111010101000
01000000000101000100001111011111
01000000001001000111100000110000
01000000000111010100111010101100
00111111110110110010001110101001
01000000000110011111101101101010
01000000010001001111100101001011
01000000000010010000100111010100
01000000000100011100110001101000
00111111000111100101011101001010
01000000010010100100101100000111
