11000001001111011000010100100011
11000001001011010000001000010001
11000010001111101001010101110010
11000001110001001001101110011001
11000010001000011010111111011001
01000001100000100101111000000100
01000010001010001000000011101001
01000001101011101101101101001011
01000001001100111100001000110111
11000000111101111110101110011010
11000000111100100011101110001100
01000000010000001011011011010101
11000010001101001000111110101000
11000001100001111100011110001001
11000001100110000111010100000001
01000001101101100001001101001111
11000000010111001000101011010000
01000000100110110111100111100011
10111111111101111010000101100010
11000000101011010001100100111001
11000001111100110001110001001000
11000001101001110001101101010100
11000010010000110000000110001000
11000001011111101011001010110010
11000001001011001001101111111011
11000000110111011011000101001000
01000010001000111001110001100100
11000001111100101010001000111001
11000001011010000111100111011001
00111110101101001110111000110100
10111111001111100111001100001011
11000001101110101001101010100000
11000001000111101100110000010110
01000000101010111001000101010010
11000001100011111100010111101111
11000010010000101101110100010100
01000001100101100110110110101110
11000001111111000100101100011100
11000000011110101001110100010000
11000010010011010011001100011000
11000010010001010000001110001110
11000010010001001100010011010000
11000001100100101100010100110111
11000001110100000110001000101110
00111111101001000010010000110110
11000010000000100011111100110110
01000001110010101101001110100111
11000010001011111001111101101001
11000001111110011111110100100001
11000010001000001100101101010100
11000010000100100101111010011000
11000001111000011011111111011100
11000000110011111101110010010011
11000010000001111101010010001000
11000010010110000011001001110010
11000010000110100111100010001110
11000010000110011100111001010100
11000010001001001000101110110010
11000001110101001010101010011111
11000000100100100010100111010101
01000010110011000010010010010011
11000010001000000010000000001010
01000000100000000100011110010001
11000010001000111110111001111011
