01000101000011000001010010110010
01000101000000101001001011010100
01000101001111000010110001000111
01000101000011011111100000000001
01000100111100000010101011101001
01000101000110001000011001100110
01000101001101000100101010110101
01000101000100101001001010101001
01000101001011010011011001011000
01000101001101110000101000100011
01000101000110101000011100001000
01000101000001110010101110100011
01000101000000011011110001110111
01000100111101100101000101111111
01000101000000000001000010001111
01000100111011100100000100111101
01000101000000100110000110001001
01000100111110100110111100010101
01000100111111010000000001011001
01000101000101111111011000011000
01000101000000000000010011001000
01000101000000010101000100010010
01000100111100100010001000010000
01000101000011010110101011000110
01000101000000110000010001101101
01000101000111000001000101010011
01000101001011101101011111101001
01000101001001101011111110101111
01000101000011011100110011101111
01000100111110111110101100110001
01000100111000110000101011011000
01000101001000101000001111101001
01000100111011100110000001101000
01000101001000011110011100101101
01000101001110010000110100010010
01000101000111101011010111011011
01000101000100101010000100101001
01000101000011011111110101010000
01000101010001010011001111101001
01000101010100001111101000010010
01000101001100000000111001110010
01000101000010110101110111010010
01000101000100010000100010111100
01000101001011000011001001000001
01000100111000101001011001000100
01000101000000111101001110111010
01000100110111111001001000010101
01000101000010000011011010110101
01000100111011100001111011010001
01000100111001110000111011101110
01000100111010100000111000001011
01000101000011101011000011001111
01000101010010000000010001011011
01000100111111100100100110011010
01000101000010100100001001010110
01000101000000110110010111000000
01000101001001110001110001000100
01000101000011011011001011011101
01000101000001111110101010101100
01000100111000110011111100100101
01000110000110101010000101001100
01000101010100111010111000110011
01000101000011110011000010101011
01000100111011110101010100001000
