01000100001100010110110101111101
01000100001001110000011111010110
01000100010101100101100101101110
01000100011011111010110001000000
01000100001000111111001001000101
01000100100011101010110111011000
01000100010101000000000000010001
01000100001111001100000110101111
01000100001111001000000000110001
01000100010101111100101000100000
01000100101000001000110011010011
01000100001100100111110010111010
01000100011000110110000011001000
01000100100001100000111110111010
01000100011010111101010000101101
01000100010000111010100010001100
01000100001011010101000101011111
01000100001011110110110001101010
01000100001111110111000110100010
01000100011100111010111000000111
01000100010001111111010011001100
01000100010010011101011101100010
01000100001101101011000100110110
01000100011001110100001100100110
01000100010100010111000000010100
01000100010100000001000111111100
01000100000101001000010000110111
01000100010011001010111110100101
01000100010000101101111101011110
01000100001100000010100000101010
01000100010110010010100111000001
01000100001100110111010110100011
