01000000000011011110100101100001
00111111100100010101110100000000
00111111011001011011000010010110
00111111111101100111001001000011
01000000000001100110110111110001
00111111011000111001011110111100
00111111111011110001111111110110
01000000000010001110100101101101
01000000000100001010001100011111
00111111110111010011000011011010
00111111111011000111100001001011
00111111110000110000010000100010
00111111100101000101010001110100
01000000001010000111000110110010
00111111111010011011001000110011
01000000000100000101101011010011
00111111010110001101110111010110
00111111100111110001010001000111
00111111111000101111111100000000
01000000000010011100011101101100
01000000000010011111110111001011
00111111111001100101111011011100
00111111100110001001100011010100
00111111001001000000011111100101
01000000000011010110100011111010
00111111000001100110101011111010
00111111111010111000000100011000
00111111110010111111111110001000
00111111011110110010000110011010
01000000000001011111000011000010
01000000000010100110101000101011
01000000011000000101101111011110
01000000000100111000110000101101
01000000001000000010110110011101
00111111100001011101100001010011
00111111111100000100000111110011
01000000000010100011101011101110
00111111000100001101101111011111
00111111101111011110111101000111
00111111010001001101001111011110
00111111100101111010111110000100
00111111000100110110101000110010
00111111111010100011001111011010
00111111011010100110100110110010
00111111101011101001101101011001
00111111001011011001010001001011
00111111001010100011011101001001
00111111111000011100101101101010
00111111010111110110100100111001
00111111100101110000100001001000
01000000000100101111010011000111
01000000000011001100000010101100
00111111101111011000000011101011
00111111111010101100000101011001
00111111011110001111000110111011
01000000000001011011010100000000
00111111111000001110000110101111
00111111110101011001110101001101
00111111110111001110000000110011
01000000000100010111011010110011
01000000000110111111100000000110
00111111110110110111010111000011
00111111101101101011101011111010
01000000000111110100010001110111
