11000010000010010110111111001111
01000000111000011010011110100010
11000010001000010110001011011001
01000001110000110111101011001110
01000001101010000110000110111101
01000001101110011010000110110010
11000001111111010111110011001001
11000010000000101101010000100101
11000001100111101010000010000000
11000001010001100000010110010010
11000001100001000110110010011110
01000000101101000000011111011001
01000001110110110100100101111100
11000001010000001111110001010101
11000010001000011011111011101101
01000001101010010100101101000001
11000010100101101100111010010010
01000001000010110110010100011000
00111111111100100101100101010000
11000001100011000111001011001100
01000001110000100001101011110100
11000000010101010101110001100100
01000010000100010010110111100010
11000010001101000000010110100001
01000010000010010010000111101110
11000010010110001110100010101001
11000001110011001111001010011100
01000001010000010110101000100001
11000001110100111000010111100100
01000000101110001010011111101011
11000001010101101101110101111111
00111110101000010101011101111011
