01000010101001001000011101110011
11000010000100010101000100011110
11000010100000001011000111000100
11000001110000101111001000001100
11000000100101101100111111010000
01000000100010010010000001101001
01000001011011000000101001111011
11000010000011001110111101011000
11000001000111001001010011110110
11000010010100110111001100100010
11000001111011001001000001110011
11000001110110001100110010000001
11000000111101010011011101010111
11000010001111000111001000110110
11000001011000110000101100011000
11000001101100100011011001000100
11000000111000100011110110001011
11000000110001000110001100111100
11000010010111110010000110010000
11000010011101111111111001000110
01000010011111011110001111101001
01000000111000011101101001000101
11000000000010000100100000000101
11000010011100001101001101101011
01000001000011100111110110010110
11000001110110111110010110100110
01000001111000011111111011001010
11000010000001010111011101111000
11000000100100010000011110001001
11000001010011000101001111110100
01000010010011100101100001000010
11000010011110110100000110111100
