1011101111111110111011101100011001011110111111100011101000110101111111010101111111001111100110111101
0110101111011001010101111011101101110111110111001110110111000110001111111111111100111111101011101111
0000000000000000000000000000000000000000000000000000000000000000000000000000000000000000000000000000
1111110110101110101110101011111010110001000111100101100110001010011000000011101110100000111010000111
0110101001101111111111101010000110011001110101010111011110100000111000011001010011101000011101010111
0100000000000000000000000000000001000001001000000000000000000000000000000000000100000000000000000000
1101011111111100110110111101111101111101111101001110101111101011101111101001111000111110111111000011
1111010011011001111011111110111001001001101111111011111101111010011111011000101100111000100100110111
0000000000001000000000000001000000000000000000010000000000000000000000000000000000000000001000000001
0000000000000000001000010000000000000000000000000000000000000100000001000000000000000000100000000000
0001100000101001000001000110100000001111000100000111101100011101000001010011100000000000101001001000
1010100101111111111110111010101011101001111110101111011110111011110101111011110111110000011110100111
0111011010001100111011011101001100011010101000101000000111010011110011100100110000001100010111010110
0111111011111001111100101100011111111110111100101111000111111111110110110001111011110111101100010010
0100111101111010101100100011010000000111100000111001101101110110101111000001001110000101101011011011
1111110111111110011111101111101111001111111101111101111101011010110110111111101000111110111111101010
0000010001001011110101111110010000010011110100110011110100000001011011100000100001010110001000110101
0000000000000000000000000000000000000000000000000000000000000000000000000000000000000000000000000000
0010000000000000000000000000000000000000000000000000000000000100000000000000000000000010001000010000
1001001010100100111101010100100001000010000011100100001010001011000010100011101010110101000001000011
1110111111011111111110111111101110111001111111111111111011101111111110111111111111110011111110110111
0110011011000111101110100001110101011000101000010010000011110111111010111110010011101100111001010101
1011111101110111111111101111110111111011110111111110111111110111111111111011110111001111111111111111
1011110011001101000111101111010100111011110101110011101001110111111101010001010111011111011101010111
1111111111111111111111111110111111111111111110110111111111111111111111111111101111111111111111111111
1000100110100110101010001010101111011110101010111110111111011101111011111110111100000010111000001001
0000000000000000000000000000000000000000000000000000000000000000000000000000000000000000000000000000
0001101111111111111101110111101011010110111111111111010110111110011011111101100010110111111000111111
1111111111111110111110111010011111111111001111110111111011011010110110011111111110110111010111111001
0000000000000000000000000000000000000000000000000000000000000000000000000000000000000000000000000000
1111010111110011011110110101100111101001010011100011001110110001101110011110111001101110111111110110
1100111111010000111111111111101011100011011010000010011101111011111110000111111111110111000101110010
0000100000000000000000000000000000000010000000000100110000000000000000000000000000000000100000000000
1111011111111111101111111111101111111101111111111111111110111010111111111101010111110111111101110110
1110101011111111101111001100101111101101111001111001111001111000011110110001101111110110111000001111
1000000010000000000000000000000000000000000001100000000000000000001000000010000010000000000000000000
0000000000100000000000000000000000000000000000000000000000001000000000000000000000000000000010000000
0010100010110110111101100001100101101010011010101000100010101011001001000000001000101010001110110001
0111111101101100111111111111111111111110011111101111111110110111111110111111111111111111111111011111
1100001100011110110101100101011100101101100011111101111101110100110111011011010101011100111001111111
1100110011101111111001101011111001011111111011111111111111110001100101111001001110111101101101101011
0011111111011111101011110011110110110100111111110011100011011010000111011111100101001001101011111100
1111011111111111000111011111111101101011110111111101111111110111111111011111110111111111101101111111
1011110101110001111110110111110101110111001111101000101111110110100011001100111010001111110010011110
0000000000000000000000000000000000000000000000000000000000000000000000000000000000000000000000000000
0000100000100011101100100100010001001001010011110000000000000000100100011100011000100001010111010111
0000000000000000000000000000000000000000000000000000000000000000000000000000000000000000000000000000
0000000000000000000000000000000000000000000000000000000000000000000000000000000000000000000000000000
0011111111100111111111110101111111111111111101111111111011111111111111110111001111111101010111101111
0100010100001111100010011100000001001101111011011110110111011101100001110000100111111010111011010111
0100100000001000010010101001110001000010100000000101000000010101101110100000010001111000001001000000
1111000101010001110011111011100101111101111011011100010101111110111110110011101101011011101111111011
0011101001000111111101011111111111011101001111100000111001111011111111010011111111111111101101101101
1110011111110111000100110111000101001111111011001111011011011011110110101110110001111110111100101101
0100001110011111010110111111011011001100010110110111011010101111011100101011101111000110101110111101
1011011111101011111110110001011011111111111011111100011111111111011100001111011111111110110100111011
1110111101111100011111011111011101111111111111111111111100101111101111111101011111110111011111111101
1110111111111111111110111111111110111111111111111110111111111001111101101111111111101111110011111101
1111111111101111111011101111000100101010110111101111111111111111101101111101011100111111110101111111
1111111111111111110111111110111111111111101110110111111111111011101110110111111111111111111111111011
0011100000001001010100000000001100100100000101101101100011100011111010111100001110111110100101101010
1111111101101100111111110101111111001111110111111101111101110111111111101110101101101100111001111010
1101110111011111111110110010111110010111111111111100100110101111111100101111000110001001101100111101
1011011011111111110111111111110111111111111111111111111111111001111111111111110111111001111111111101
1111111100111111110110010010011111101111011100110010111011111111110111101110110101101011111101101111
0000101000000010010011010000000011100100000000100000000000010001000001000001000000000100100110000101
0100111010111010110110110100101111100000010101111011010101011110001001111010100011001001111001101011
1111110010011000010010100101101011100111001011011111101001000101011111101111100110011100010111110001
1001000000000000100000000010000001001001110001000000001000000000000000000100000010100100000000000000
0101010110100011111011100000111001001010100100000010001110101011101001100111001101011110010000000111
1111110011110111111111111011111111011110111101010011011111001111101111101011101011110111110110101101
1101001101111110101101110011111110110111111110110111111000111111111001111111111111111111111111110110
0000000000000000000000000000000000000000000000000000000000000000000000000000000000000000000000000000
0000000000000000000000000000000000000000000000000000000000000000000000000000000000000000000000000000
0010000000000000000010100000000000000000000000000000000000000000100000000000000000000000000100000000
0000000100001100100000010000000000000000000000000000001000000100000000000000010000100000001000000000
0000000000000000001000001000000000100000000000000000000000000000000100000000000000000000000001000000
0100001000000000000101100000000000010000000001000000000001001000000000000000010100000000000010100000
0000000101000000000000000001000000000001000000000000000100000000010001000000000000011100000000000000
0000000100000100000000000000000000000000000000000000100001000000000000000000000000000000000000000000
1000010001000000000001000010000000010000000000010000000010000010010000000000000000100010001001000000
0110001110111011110011100010110001110000010000001010010110100101111010100000001011011101001110010011
0011111000100001110101110001011000000000000101010101010000100001010000110000110101011010010110100110
0110001000101111101100010000000000011100101110001001100000100000011011000011001001101010100000111111
1100000010110000000100001100011000000010011000110101011101010110110000000101000000111000100010000011
0110001100001011011000000011111000001000001011001001010001101010000000010001001000010001001010110000
0100000101000110100010100101100100100011001000000010101000001010000001001001011001100011100000000100
0100001001011010100110110010111010010100000110100001000000010110101000001010001110001000100100100000
1011010101001101101000101100010010000101000101100001000001000110000010010110100100101010100010001101
0011101101001001101101001001011001001000101000100101010011001100010011101000111000111011111000111100
0001001000101001000100000000101000100000000110000111101001101001010000011000110011011101000010100000
0001010010011000011000000100000001100000111001000000000100100100000000111001001001001100110011000001
0001111100100001110010110111000000001010010001000101100000010111110111101010101101010100100010001011
0010010000011001001000100111111001101110111100100010110111111110111011100100110101000110111110011101
1010001000010010010000001101011100000000111101010010001000101000110110000010110001011000011000001001
0001000111111100101011100000001110001001011000000000000101001010111111111100001101000111011010000001
0100101000111101011110110011000011000100111001101111010111010011100110110000000101101001101000101010
1000000010100100111101001000000100010011100010110010110101010111110101001010101000011100000010111110
0011100000100001111001000110010011010111100001100100010101111111001000100110000100010100011111011000
1000000000110110001001010000000000100010000110000100111101100000011101000000001100010011110000000100
0010110000100000001000010001000000011011010000001010000000001011010101001011110001011001000101001001
1001101101010001011110010010011111001000110110000111011011010110011001100111101110001100001100101110
1010101100100101011010011001010101110010001000001010001000100111111000000110010101101000100010000010
1010011000010100001000011000100100001011000110011000110001011110110100001100001000001001000100000000
0011010000100010011101101110001110110101010010101001110100010100010101111000110110100010001000001101
1011100101100110000100101111110111101001010011001100100011111011011101111100111010100000110000111011
0000001000010101011111110001100011010011000010000111100010000111000001000000000001001011000010101100
0100011101111010101101000000010101111101001011101100110101000000000110010011001111000100110001100101
1101110011001110111111111011101111111111001111100011111110111111111101011111111101111111111101111111
1001111111110111111101101011001111111101101111111111111111010111111111011010101111101111111110111000
1011111111111111011101111110100011111101111111101111010111101111111011011111111111111111101011100010
0001010000010110110010011101101011100111110100111011001001110110000010011010111110011110101111010011
1001010010001100111000100010111000101100001011001011100001011110011001000111010101110010000011100001
0100011101011100101011011010001111101011110101001010101011011001010101100110100011111110010101011101
0000000000000000000000000000000000000000000000000000000000000000000000000000000000000000000000000000
1000000010010000000000000000000010000000000000000001101111000000001000100001100000000011000000101100
1101011110110101011010110101110000100101001101010011111101111111010101001010000010000100111111000010
0000000001010000000000100000000000000000110001001000000010000000000101000110000000000100000100010000
1111111111111111111111111110111111011111010111111101111111101110110111111101111111011111111011011111
1111111111111111111111111111111111111111101111111111111111111111111111111011111011111111111111111111
0000000000000000000001000001000010000000000010000000000000000000000000000010000000000000000000001000
0011100101001110000100010011011011100011100010010001100010101011100111101101100111001100001000011111
1011110101101011111111110111111111011011110111111110111010100111111100100011110110111111011101110111
0000010010000000000100000110010000000000000000000000000000000000000110000000000100000001000000000000
0101111111111111111111110111111111111111111111101111111111110111011101111111010110111110110101111101
1111111101111111111111111111111111111111101111111111111111111111101111101111111111111111111111111111
1010011100000010110010000011110101011001100011100010001001010000100000110111110111100010111001100011
0000000000000000000000000000000000000000000000000000000000000000000000000000000000000000000000000000
0000000000000000000000000000000000000000000000000000000000000000000000000000000000000000000000000000
1101011111110011111111111011101110101111111111111011111110111111111111101110111111111101110111010111
0001110001101010011111100100111111111101010111011001110101111001011101101110110011010001110111101111
0000010011001000010000010001000010110101110000011110100001010000100010001010000010011010000001101010
1111011111101101100100011100011110011111010000100011111101011101110101000110111101110101111110111011
0110101110001100011101010111101111111110111011111110110010011001101111110011101111111111101110011111
1101111000110110111001110111111101111111110111111111111111101011111010011001110000110110101110100011
1111111111111111111111111111011111101110011111111111111100101111111110111111101111111111110111111101
0001000100100010010011101110011101000001110010000110010011001111100111100111101011011110000010100011
1000000000100000000000100001001000000000000000000000001100000000000000010010101000000011000000001000
1101110110110111101001110011101011011101011101111010100110011100101100011011111100111111111111001111
1011110101111111011000111011110110001101101001101110111111110101011011111111001111111110101100001111
0000000010000000001000010000000100001000000000001000000000010000000000000000000000000000010000000010
1010010000000100110000000010100010100000001100110001100000100001000101110010101000000000000001000010
1010101111111111011101010101101100111111110011111111111111111110010011111101111001110111111110001101
1111101100110110111111110111111110111111101111100111110111110111111110111111111111111101111111110110
