0110000111
0110001000
0110001001
0110001000
0110000111
0110001001
0110001000
0110000111
0110001000
0110000111
0110000111
0110001000
0110001000
0110001001
0110001000
0110000111
0110000111
0110001000
0110001000
0110001001
0110000111
0110000110
0110000110
0110000111
0110001000
0110001000
0110001001
0110000110
0110001000
0110000111
0110000110
0110001001
0110000110
0110000111
0110000111
0110001000
0110000111
0110000110
0110000111
0110001000
0110000111
0110001000
0110001001
0110000111
0110000110
0110000111
0110001000
0110000111
0110000110
0110001000
0110000111
0110000111
0110000110
0110001000
0110001000
0110000111
0110000111
0110000111
0110000111
0110001001
0110000111
0110000111
0110000111
0110000111
0110000111
0110001000
0110001000
0110001000
0110001000
0110001001
0110000110
0110000111
0110000110
0110000111
0110000111
0110001000
0110001000
0110000111
0110000111
0110000110
0110000111
0110000110
0110000111
0110000111
0110001000
0110000111
0110000111
0110001001
0110001001
0110001000
0110001000
0110001001
0110001000
0110000111
0110001000
0110001000
0110001000
0110001000
0110001000
0110000111
0110001000
0110000111
0110000111
0110000111
0110001000
0110000111
0110001000
0110001000
0110001000
0110000111
0110001000
0110000111
0110000111
0110000111
0110001001
0110001000
0110001000
0110000111
0110000111
0110001001
0110001000
0110001000
0110000110
0110000111
0110000111
0110001000
0110000110
0110001000
0110000101
0110001000
0110000110
0110001000
0110000111
0110001000
0110001001
0110000111
0110001000
0110001000
0110000110
0110001000
0110000111
0110001000
0110001000
0110001000
0110000111
0110001000
0110000101
0110001000
0110000110
0110000110
0110000110
0110000111
0110001000
0110000111
0110000111
0110001001
0110001001
0110000110
0110000111
0110001000
0110001000
0110000110
0110001000
0110001000
0110001000
0110000111
0110000111
0110001000
0110001001
0110001001
0110001000
0110000111
0110001000
0110001000
0110001000
0110001001
0110000111
0110000111
0110000111
0110000111
0110001001
0110000111
0110001000
0110001000
0110000111
0110001000
0110000111
0110001001
0110001000
0110001000
0110001000
0110001001
