0001110000011101100001111101111011001111111010010000000101111111001100101110111111011111100011111111110011111110110010111111001111101110000111010111011001111010111111111110001111111111111101111110110111001111110111111110111010111101111110101101011111001111
1111110011000111011001111101111010010111111111011010101101111111111011111011111111101111011111111011111110011111010101110110100110001101111101011111111100111111101111010111111011111111111101111000100010111111101100111110111001111111111001110101111111101111
0000000000000000000000000000000000000000000000000000000000000000000000000000000000000000000000000000000000000000000000000000000000000000000000000000000000000000000000000000000000000000000000000000000000000000000000000000000000000000000000000000000000000000
1101011101110101100011011010011001110001001010100110101011010011111111001001110101010101000110111110010010001001011000001010001110110110001111011011111111110110011111001001100010101000001101111101111101101001000111011111111001010110110010101110101111100001
0101111111000111101011010110100111010011011101110111100110111110111100001001110110001101010011001010000100110001111010010101101111100100100110100011001101100010101100110011101111100110111110011110100011100100110111010010001101111111110111010110011010111110
0000010000000000000000000000001000100000000000000000000000000000000000000000000000000000000000000000000000000000000000000000000000000000000000000110000000010000000000000000000000000000000000000000000000000000000000100010000000000000000000000000000000000001
1111111111111010111011101111111011111010110111111100111010111101111111111111111111101101100111110101011001111111111111100111110101111111110111011011011111111111100110111111111111011110111011111000111110111110111111111110110100110011101011101101001111110110
1011111110101000110011110111001010010011100011010111010010110001011110111111011110011011100111001101011101011111101111101011100101111110111111101101001011111101111100110011001111011010001011001100111111011110110110001110011010011011111101111011101011011101
0000000000000000000000000001000000000000000100000000000000000000000000000000000000000000000000000110000000000000000100000000000000000000000000000000000000000000010000000000000000100000000000000000000000000000000000000100100000000000000000000000000000000000
0000010000000001000110000000100000000000000000000000000000001000000000000100000101000000000000000000000000000000000000000000000010000000000000010000000000000000000000000000000000010000000000000000000000000000000000000000000000000000000000000000000000000000
1101000101001000010000000110010101110001001110000110101010010001011000000100101111000100001000101000100110001011100000011001000000000010000000000000000110000001101110001011100000100010100101001000100100000011010011011001100100000101000000110101101000000010
1111010111100101101110111010101110101001011111001111010000001110101111100110110011101111111101111111111111111110101111111111001011011111111111101101101111111000101111011100111111111100111101100111010000011101011111111110111101101111111111010111111100111111
0100101010010001011001010000100001001100110000101100011101100110011000110101001001100110110000100000111010111000001101011000011010100001101000101010001010000101110111010100001010010011000000011110010011110010010111000010010110000010111100111010001011100111
1111101101011110111001001111100101010001111111100011101101011111101101110101110101111100011111001111011111100110101011111001101011001111011011011101101111000101011110111011011111110100110010101110001111010111011111110100011111100100011001110110111010011110
1011101011111001111100001111001010100010100001101011111100100010010000101001000010100111100110011111111111110001000001111111110011110011110001100010010010001011101110111001011001011001111011000111000101000100011101111000011110111011101000100111010110010000
1111110011111001111001101100011111111101110001101110011101011111111111111111101001101010111111011111110110111110101101001111111111111111111111101001111111010111110110111100111111011111100111000111111111111111111011111101010111110101110111100111111110101011
1111011010011010101101010011001000111110001010001011111101001010011100011101110000001100101010101110011101101001010011110011101010001011111000111010111110100111100110111000111001101010010001100110000001000010110100110010000010001001111101011000001001010010
0000000000000000000000000000000000000000000000000000000000000000000000000000000000000000000000000000000000000000000000000000000000000000000000000000000000000000000000000000000000000000000000000000000000000000000000000000000000000000000000000000000000000000
0000000000000000000000010000100001000000001000000000000000000000000000000000000000000000000000000000000000001100001001100000000000000000000000000000000000000000000000000000000000001000000100000000000001000000000000000000000000000100000000000000000000000000
0101100110111000000110110000100001000010100010110111101111101101001110010111001111010010001001001010110101100101111011000001100010110010010011101110010100001010011001001010001010110101011111110101010110101111010010101001001110110110000100100001010000110001
1111111111111111111111101111111111111111111111111111111111111111111111111111111101111111111111111111111111111111111111100111101111110111111110111111111111111111101111111111111111010001111111111111111111111111010111111111111111111111111111111111111111111111
0010011101111111110100100111000001110111010111100101001110001010101110001111011101100110000100100100010000011010011110000001110011111100111111110111110011001011111100111011110001100011001101000100100111001001010001110110011100000111111110100100101111001101
1111111101110011110111111101101110110011111101111110111111101111010110110111110111111011111111101010010111111100111111111111001101010011110011111100001111100111111100111111101010111111110011111011000111111111111011111010111101111111111111110110111110111100
0001011100100000010111100111011111100111100101111101111101101101011101001011011101011110110100000101111111111101000101111011111011100101110111111010011111101111111011100011111101111111111101001110111111011111110100101100101011010001101110100110111101000101
1111111111111101111111111110111111111111111011111111111111111111111111111111111111111111111111111111111101111111111110111111001100111111011111111111110111111111101110111011111111111111101111011111111111111111111111111110101110111111111101111101111111011111
0100111101101111101111111011111111001110111001011110010001101110110100111110001110110111011101111110011011011101111001111111111001111011111111101010111000111101110110010101001101011101010111001111101111110110111101011111110011110111111001111011111101111100
0000000000000000000000000000000000000000000000000000000000000100000000000000000000000000000000000000100000000000000000000000000000000001000000000000000000000000000000000000000000000000000000000000000000000000000000000000000000000000000000000000000000001000
1111111111011011111111001111111111111010001111111011111111011011001111111100111011101111010000111111110111111111110101111111000111101111110111111110111111011111111111111111011011100001011011111111111111111111011101000111011111111100001111101001111011111110
0111111111111111000010011110110101100111111111111101000111111101101111111111011110111011111011101011111111111111111011111111111101111101010111001111111110111000111111010011011101010101011100101111111010101111111110001001111101111100011111011001111111001101
0000000000000000000000000000000000000000000000000000000000000000000000000000000000000000000000000000000000000000000000000000000000000000000000000000000000000000000000000000000000000000000000000000000000000000000000000000000000000000000000000000000000000000
0111111011000111111011011011111000111111001000101011111100111101001101111111001000010001011111000111010110011110100011001000111001111011101011101101101110110010011010000100101001101100000011110101100101010101101001101100101001101110011000111000011011111011
1011100010111110001001011110011100011110100100000100111001010001001111100011000101010110010111001101111011010100100000010010001110110110100010110011111110110100101001110011010111001100010111111001111010101011101000111111011110000101110010110001101010010101
0100000000000000000000000000000000000000000000000000000010000000000000000000000000000000000000000000000000000000000000000000000000010000000001000000001000100000000000000000000000000000100000000000000000000000000000000000010000000000000000000000000000000000
1011011111111111111111111111111111111000101111111111100011111111111111111111111101110111111111100111110111011101100011110011111111001110111111111111001011111111101001100111101111111111101111111101011111111010011110011110111111111111110100101011111111101111
1101001110101111101111001011011111111111101101011111111111111111010101011011101111101100110011101101001001000100011011001001111111111111101110000101111010111111101101011110011011100010001111011111000111111101110111110110011011101100110111000110111111111110
0100000000000000000000000001000000000000000000000101000010000000001000000000100000000000001000000000000000000000001001000000000000000000000000000000000000100000000000000000000001000000000010100000000000000000000100000000100001000010000010000000000000000000
0000000100000000000000100000000010000000000000000000000000000000000000001000000100000011000000000000000000000010000000000000000000000000000000000000000000000000000000000000000000000000000000000000000000001000000000000000000000000010000000001000000000000000
0011101001110001011101011011111100011000110101011000010001101000011101110011100011110001010001100011111110011110000000111000010000000010000110100001100110110000010000100110101000000000011110010100000110011001010000110000100001011100001101001000000011011100
1101111111110111111101111111111111010111111111111111111111111111111111111111111111111111111111111101111111110111111001111111111100011110111111010111001111101111111101111111111111111110101111111111101111011011011110111111110111111111110110111111011111111111
1001010001000000100110110101110000011010100010110110101000111110001010111001100101101101101011101010010010010000011101110111100110010110001111111100101110011001110001001111010001111010010010010111001111111011100000110000001111111111100111101110010011010101
1001101111011111101011111011101011001010110111110111101111110010110101111101011110011011111111111101110011100101111111011111110111111100101001100111111111111110111111110111011111001111111110110001000110111111001111100011100111011110111110101111111101101111
0110010101011111101001111111110001111110010101110111100011110111110111110011111001101001111001010011010101001011100100010100111101110101001101111011110101011111001101001101110111011001111100111100111110111001111001101111111000000100011101101110010010000011
1111111110011111111111011110111101111101111010111111011111101111110111111111111111011111111111111111111101111111111101111111111111111111101100111111011111111110111110111011100110100111011111111111111110111111111111110111001111111111110111110111111001111111
1111100000011111111011010101100111010011111111111011110111101111011111000011010101110111110011101011011101011100010101111011011110110110111111011011011010101111111000001101111101011111010110111101111001110111111111001011101110011001111100100001011111111110
0000000000000000000000000000000000000000000000000000000000000000000000000000000000000000000000000000010000000000000000000000000000000000000000000000000000000000000000000000000000000000000000000000000000000000000000000000000000000000000000000000000000000000
0011000001000101000100111100001000000001100011100000000000110100001100001000000010100000111000010000010000000010110000000011001001000100000000000011010010000000100000001001000011001110100110100011101001000000010000010001111001011000001100100110110001001111
0000000000000000000000000000000000000000000000000000000000000000000000000000000000000000000000000000000000000000000000000000000000000000000000000000000000000000000000000000000000000000000000000000000000000000000000000000000000000000000000000000000000000000
0000000000000000000000000000000000000000000000000000000000000000000000000000000000000000000000000000000000000000000000000000000000000000000000000000000000000000000000000000000000000000000000000000000000000000000000000000000000000000000000000000000000000000
1111111110001111111111111101111111110111111111010110101111111111110101111110111111011111101111110111111101111111110111111110111111110111111111011111111111111011111111111111110111111100001111111111111111110111001111110010111111111111111111111101111111111110
1111010101001100110110111001111010111111111111001101001011101011111110011011111011110001110111100111010110010100011111110110101101111100000011010110100011111111101011111110010000101001001010110111010101101111111111000111110101110101110101011111000111011111
0001000000000000000001000100010100011010110001100011001001000100001000000010010000000111110000000011001000001010001010000110110100001000000011001011100100001100100011001101000111110000001000010110100001010010010000000000011001000101000000010000000010010001
1011110111010111111100111100110110110111110111111110010011011111111111011111101110111111101111111111111101110111001111111011110111111111110111111010111010100111011111110111110111111010110110100111101100011111111111111011110111100111010111100111101101111110
1110110011011111111001010111110111100110111111010101011101111111101111110111101011111001001010011111110100011111001101111000011111110011111010100111111011111011101111110101011111010111100100011110111111110110001111111011111110010101101111111111111111010110
1111110111111111011100011100111001011010101110011111101111110111111111100111011111101111111100111011111000111111101111010111100111011111111111111111001111100011100111111110101111001010111101110110011111110000110000011100011010110111010100110010001110011111
1111011110000101011110001111100010101110100110110011101101011111100001111010110111001001101100011011010111011011100110111011111011011101101011110111100111111011110111110010101111110100001110111010100111111011111111001111111010010110111111111111111100110110
1111110001101110100010111101111011111101111000111111000111111101111110011001011111100101100010110100011100111111101111011011011100110111111111111111011111111110100000110011000111011111111101011110011110010100110111111111011111011100111110011101010100111101
1111111100011111101110111110111111101111111110010110111111111110011111111111111110011011101111110111101110111111111111111111011101111110010011111111111111111111111111100111110111110100111111111010111101111111101110111111110011111101011111111101111011111111
1110111111011111111110101111001011101101111111011111111111111111111101111011111101011111111101101111111111111111111111111011011101111111111111111111111001110011111111111111111111111011111111111111101111111111111011011111111111111111111111111111111111110100
1111111101011111101110111111001101101100011100111111111111011101000101101101110111101011111010111111011111111111101110111101110101111111110111111011101101110011111111111011011111111010111111110011011110101111111011110111101111111111110110111111101111111001
1111101110111111111111101111111111011111111111111011111111111111111111111111111111111111111111111111111111111111111111111111111111111110111110111111111110111111111111111111101110111111111111101111111111111111011111111110111111111111111101011111111111111111
0100110101000111010110110001001010010011110110001111011111001110010100100101110101000100111101101110011010001010100000111001100000111110101011001010100000101100010010011111101111110110001110001001101111100100000101001001111111011010100110011000010001001111
1011111011111101101010010111001111111101101101001110110011110111101110101110111111111110101111111111011111101011111111010001100110111111011101101110111111101101111111111011111101100101100111111111110111010101101110011110101101111111110111111010111111111011
1011111111111110101111111111111110111111101101111011110110101101110110101010111111110110101011100101011111111101101100011111110011111111111111101011111011111111111011111111111111010111100110111111101100111101011011100000001111110011100111111110111111110000
1111111111111111110111111111111111111011111111111110111111111111111111110111111111011111111111111111111111111111101111111101011111010111111111111111111111111111111101111111111101011111110111111111111111011111110111111111111001011111111111111011110111011111
0011111011011100011101111011101101001111011110111111101111111011110101111111110110011011110010100111110111110111111111011110110010110101111001111111111010110101010111011011100101101011111100010111100111110101100101101111011111011111011111111111111111111000
1010010100001000000011000000010100000001000000000000010000001110000000001000000011000010000010100000000010100000000100101111001100001010010000010100000000001000000101000001000100100100000010000110000000001000001000100000110000001000001001100111100000010000
1110101000111001011101110111110110101011101111011000110100111110111111111111101110001001001000101100101010111000100101000110011100101111101011110111010101110101111110110011110111111111101111110011110100111110110110100110101110111100100100111011011110101000
0111011011011101011011101111001110110101111100001011110010110011111111011010110001001011101010101010111000001011010001100110111101010011111001101100010101111011100111111011111010110000110110111111100011110000110001011110010011101011111111101101000101111110
0000000000000000000000000000000000000010010000000000000000010100001100000100000000000000100100000000000000000000000100000100000001001010010000000100101100100000100000000001000000000000001001000000000000000000001000000000010000000000000110000001100101000010
1000110001010111010000111011100010000000010111000011010011010100110110011100000100000000110010000000111010111001101011011001000011001000110100011110000100000000111011110100011101001001110101011000111010000110010101010000110111011001001011001001000001001101
1111101110111111111000111011111101111111111110110101111011111111011011111001111111101101111111110011111111011100111001111111111111011111111111100111110001111111111110111110111111111111111101111101111111011111111111001101111011110110110111110111101111100110
1100111110111101111111111101101100111111111111111011111111111111111111110111111111111110111111110100100111111101111111111101111111110111111101111011111101101110101010111011110110111111110111101111111111011111010011110111101011011111111111110111111111101111
0000000000000000000000000000000000000100000000000000000000000000000000000000000000000000000000000000000000000000000000000000000000000000000000000000000000000000000000010000000000000010000000000000000000000000000000000000000000000000000000000000000000000000
0000000000000000000000000000000000000000000000000000000000000000000001000000000000000000000000000000000000000000000000000001000000000000000000000000000000000000000000000000000000000000000000000000000000000000000000000000010000000000000000000000000000000000
0000000000100000100000000000000100000000001000000000000000000100000000000000000000000000000000000000000000001000000000010000000000000000000000000000000000000000001000000000100000000010000000001001000000001000000000000010000000000000000000000000000000000000
0000000000000000001000000000000100100010000000000000000000000000000000000000000000000000000000000000010000001000000000000000000000000000000000000000000000000000000000000000000100000000000000000000000000000000000000000000000000000001100001000000000000000000
0000000000010000000000000000100100000000000000000000000000000000000000000000010000000001000000000000000000000000000000000000000001000000000000000000000000000000000000000000000000000000000000000000000010000000000000000001000000000000000000000000000000001000
0000000000000000010000110000000000100000000000000001001000000000000000010000000000000100000110000000000000000100000000000000000000000000000000000000000000000000000000000000000000000000000000000000000000000000000000010000000101101000000000000000000000100000
0000000000000000000010000000000000000000000000000010000000000100000000000000000000000000000000000100000000000000000000000010000000000000000000101100000010000001000000000000000000001000000000000010001000000010000000000001000000000000000000000000100000000000
0000000000100000000000010000000000000000000000000100000000000000100001000000000000000000000000000000000000000000000000000000000100000000000000000000000000000000000000000010000000001000000000000000000000000000001000000000000000000001001110000000110000000000
0000001000010110000000001000000000000000000010000010000001000000000000001000000000100000000001110000000000100000000100000000000000101100000000000000000000100000000000000000000100010001000000001000000101000000010000001000000000000101110000101000000001100001
1001000100010011010100100111101110100010110010011011100011110100001010101111010001100100001001100111011111000011001110111100001101100010001111001101010100001001000011010001101110111111100010000111111110001101000111001101000000001111000111000111110011001100
0110111111000000001000000110000100010110001001110010101110101000100001000011010010101111100001101001001101101011011110100010010010010100001100010000111010010001110010100101100111110011001010010010001010100100000000010100110011100101000101001101010100110011
0100001101100100001101011000010101110010010011111100100001000101110000010100000011110001010000010100111101101001101001001100100010101000000001111000000100100001110110110111001000101011100100111111101111000010110010101010000100001111100110100101000010000110
0000000011011011000000000010010001011000010001111100001100110001010000001001000000000001000010100110111000011101101110000101000111001110010101010101000101000101001101100000101110110000000001011000000110010100000001000000101110100001000000110100100000010100
0001111000110110011000010000101000000000110101110100000010100110000100011001010100000000100101001000011001000000011000001000001000001000011100000010001101101110110101010000110110010000010110000001000110001001001000000010100000110101000000011000001111001101
0000100110010110100100001011100100010111001000000000010100101111000101111010111010010110000010100000000000001110010100001010001000101010100001001010011010001000001100000111010101001011000100100101010010000011001010101000001000001111110011001001100000011000
0000101110011011100011010100001101010011000010010111110010100110111010111100000001011011001100001100000000101011001110100000011100100110110000001000110000000110110001101111011110010000101100111001101010000010001000101101000000010000101001101000111011010010
0001000100000010110101101100000011100100010010001011100111101011011000010101000001110010100101001100101101111100001011100011000110100101001011000000010110100100110000010000011110111101001000011001000100011100110110001011010001001011110100000111001011010001
0001100001010000110111100100011010000101001001101100010001000111011111100010011000100000111011101111111110010101110001100010101001000010001010111011011000111001011100111010010001111001000100000101000111110110001110011001100111011010111000011001110100101111
0000011001010011000110000110011011001000000111111000000101001101000001000110000000100101000011010010010001000011000010100000100010100000000000001101001001001001011010100010000000001100100010000000011000111100010010100011000000000010101010001000110100100100
0100000000100010100000110110011000001011000000101000010101010100010111000110000100010000011001100010000000001001101110010000010111010010000000100100000111000000000100000000111000000100110101100110101100000000011000111010101000000010100010100110000001000000
0100100111110100101000000110001101111010001100110000101011010001010111011100110010011000001000111101001111110010000010010110001010011110000011000100001000010100011110110100001000010011000101011000101110100011110100100000110010100000110001110110011100110100
0100000000100000000001101110100010010100001111101111000110110011100100001111100100100100001000000110000110011000110000000010111110100101011010100001000000001101110011011100100111011000111101111011110000011001111101001010010011101011011001101100111010101001
1001000100110000100001100000011111000001010000011100000001000101001000110101101101000110010100011011000100000000000000000000000010000000001101000010000000000000000000000001011000100100000100100101001010010010000000010000111000000001000110000010100010000111
0010000001010101110100011000001111000111101100010000100011110001100100000000011000110100110010100111110110001100010101010001010001110111100110011000110000100000010101100001101101111001000101000110100101001100110110010000111100001000001100101010100000101110
0110100100111111000011101000001001001001110110000001010001101011100111110101001000111010000100010000110011100100000000101111001001110010100001000101100100011101111111010111010000111011100000110011111010110010011111100101111111010101011101101100101000101100
1010100101100001111101110011010101011000101000100111101001110101010010101110100001010010100000000001110001011110101010000000000010001001110101100000101011100010000101011010010000110011001011100101011110101010010000000000000100100100011000110001000101001110
0010111001110110101101011011010010111101110000100010000110010001000101100101011011100011000100011010110110001110100011010111101011010110011101100101100101100111101010011101000011010111010101111111110000010010010011001100010101001000000010011001111110110110
0001000000100001000000111100100010011010101000001001000000100001100000010000010100100000001101000000000001000100010000000010100000010010001010000100001000000001000000100000000100110011000101101000010010010000110010101000010001000100110100110001001110100100
0011001010000000011101111000011010000000010010000001011101000000000000100001001010100000111001111000000101110000101000001000101100000101000111001001100101101000010000001010000000111110001000001000001011110010010100101011000000000010100111001011001100000010
1011000001101101101001111011010011110010011110001100001101110100010100100100110001101111001100001110111000011110000101100101100000100011000110100111000000100110000110110000110000000110111000010000010110010001000010000111110110010000100100000011000111100001
0100011001000101111000000000000101000000011010111000000100110011111101011001010000001001110001100110011011000100100000001000110111100000010000111010110101010000101100111001000010011101000001101001010101010110100000100101001010110101110111100010100100101000
0110000010011001010100110000000110000001000000000001101000010010000011110001010101100001100000100011001100110001000000011000001101110011011100110100000000100100000010000101001100101010010000100100010000010000101000010111110011011010010000100000010011010100
1010100010100010100111001000000110010000010010110101101101110110001100110111001010001001100110000010100010100101000101001100100001011110000000001111010100111010110110110100000000111000001110110000001101010000100010101100000010000111110101000100000101010000
1000001101100111011100001010110000000100111000111000011100000000101001000000111100010001101011110100001100101001110011011101001110100100011001000100001111011011101001001001110001100100010111111011100011101111000100001111000000111000010001100011111010101111
0000010001110100111011010001110100010100010110111010101100010011001100110001010111110001000100010001001010000001110111010111101010100100110100000101000101111010111110001100000000010111100000011110001000011000001011010001100111110111100100011100110110000010
0101100011001010110011011011011011111110101001000100000010010011001110110100001000000001001011010010100010101100101110001100000100010000101110100011100110000111101000011000010100100010100000010000101010000110010000110010110000100101001110001100000000100110
1111100111111111010111111101111011011111111010111101100111101011101111111110011100011111011111111011111111100101110111111110100111110110111111111111011111010111110101111101011111111111111110111110011110111011001111110101001111111111111111010101111111111111
1111111111111011111011111101111001111111011101101110011111111011111111110001110111110111110111111111101010111110110111111111101011111111101101110111111011001111011111101011111011110111111010101010101011111101111111011011111101110111001111101011111111111111
1111111111111111111111110111101111111111111111100111111100011011111111111111110011111011111111011110111111111111110111110001010111011111111111111011111000011111110110101111111111111101110111111111110011011011111111111111111111110101011010101101101111111101
1111010101001011011001101110110100110011010000111000111111001011110011101000000000111111000110110001111110011111001111101110001111110010101010100110011001100111111110011001011011101101101010001111101100100001111011111110011111101101101011110101111010111111
1010010101011101001101100100001010001111000110010111000011001001110101011001101100110011011000001011010100000110111010010000111100111110000101000110010001000110011000001001001111100110110010010110001011111100100000110110000011011010101110001101101100011010
0001111111111110101110011101100111011111101111010111111111111010101101111110101111010110101110100110100001001011110011000000110101111011100111000100110101101001100101111111111100001100100100011100111100011000110111010101101101101001101111110011011011111111
0000000000000000000000000000000000000000000000000000000000000000000000000000000000000000000000000000000000000000000000000000000000000000000000000000000000000000000000000000000000000000000000000000000000000000000000000000000000000000000000000000000000000000
0110000010000000000101000001000100000001000001001000000000101000110000010010100000100010000010000010001100000000000000000000100000000000110010001000001000010000100000000000010000011000000001000000100000000011001001000110010001001000000100000110001000100000
1100100011101011100100100001110000011100111001110010110001101110111101110101101011110100111011101111011101101110111001011110110001101101011001001111010111111001011000111111110110010100111110000011011011000010010100100111010100010110000100101110111001101110
0010000000000000000010001001100000000000000000000001000000000000100000100001000000010000000100000000010000000000000000000000000000000000000000000000100000000010000001100111000101100000000000100100000000000000000000000000000000000010000000010100000100000100
1111011101101010010111111111001111011000111111111001111111111101111111001011110111111111110111111111111111111110111001111111001111011111111111001111011110111101111011010111111111111001111111111111101011101111101111111111111101110010110111111111011110101111
1111111111111111111111111111111111111111111111111111111111111111111111111111111111111111111111011111111111111111111110111111111111111111111111111110111111111111111111111111111101111111110111111111111111111111101111111111111111111111111111111111111111111111
0000000000100000000000000000000000000000000010000000000000000000000000000001000000000000000000000000000000010000000000000010000000000000000000000000100000000000000001000000000000000000000000000000000000000000000000000000000001000000000000000001000000010000
1101010101101100111010110100010101011101001101001001010000100000001111110100001000011001010000001100101001100111101010010000110000000111010100010101000110101100000000011100000110100100111111100001110101001000000011010111111011100110000110001110001110110010
1101111111011111011111111111101110111100111111011101000111111111100110111111101011111011110101101011110111111111111111111011111101011011111111111011001100111101111011111101101111111111111110111101100011111111110110111111111110110111101101111110111011101111
1000000000000000000000100000000000000000001000000010000001001001000000000000000100000010110000000000000000010000100000000010110100000000000010001000000000000000000000000000000000000000000000000100000000000000000000001000000001000000010000010000000000000010
1111110111111111111111111011101111111111111110101111111111111111111011111110011111111111001111111111110111111111111111111111111111111111111111101111111111111111111111111111111111111111111011111111110111011011011111011111111110111111010111111011111111111111
1111111111111111101111111111111111111111111111111111111001111111111111111111111111111111110111111111111111111111111111101111111101111111111111111111111111111111111110110110111111111111111111101111111111111111011011111101111111111111111111111111110111111111
1001101000011001000010101110010100100010011100010100100000001110001111011100001100001000101010000001011101010000000111101011100000011000100001100010110101001101100010000000010000101111100001011010101010001010110110000001011000011000000011000011001100100000
0000000000000000000000000000000000000000000000000000000000000000000000000000000000000000000000000000000000000000000000000000000000000000000000000000000000000000000000000000000000000000000000000000000000000000000000000000000000000000000000000000000000000000
0000000000000000000000000000000000000000000000000000000000000000000000000000000000000000000000000000000000000000000000000000000000000000000000000000000000000000100000000000000000000000000000000000000000000000000000000000000000000000000000000000000000000000
1111110111110111111111101111011111111101010111011111111100110001111111110111111111101110110111111111011101111111111111111111111010111001111010111111001001001111111111111111111111111111100111111111101111111111110111111111111111111111111111101101111101110110
1001100101101101111011110101011111011111101110101011110111001111000111011100101011110110110111010111001100011000111110111001100001110111101001111110111101101110111001011010111111111110010101111001110111011000011000111101111101111100111011101101011011011111
1010101010001000101110011000100001100100001110000001000010100001011101001100000000100000110000000000100000101010000010010001000001000001001110111010000001010000100000001001011000000000000010010000001011001001100100001101110001010100001001000000010000001010
1010101110011101111000110011000110011110111100101010111001111111011110100011110111110100111111001110111110100000100011011001111010101111110111101111110001111010011001111011111001011000110010001011111100011010110011011011001111101011100010111001000010100111
1110010011111011101001111000101001111011011011111101101101011001011101110110101101111011101101110011110110110001101111101100111111011111111111111111111010001111100110110111011011010010010011101101001011101111011001111111111111101111110111110111001010001111
1111110111111101001010111110010111111000111111101010111111010111011111101111111111111110011110011101110110011110011101101111011111111111101101111110111110110011111101101111001011110111110001111111110101100111111010111100111110111111111111100111110110111101
1111111111101110111111111111111111011110111111111101111111111111111111110111111010111111111111111111111111111111111111111111111111101110111111110101111111111111110111011111110111110111111111111111111100111101111111111011111111111111111111111111111111111111
1101101011001100010111000000000111011101000010110001011000101000000101000111111101100001010101011111101111101011101010010101111000100100001001101001111111001000100100011010100100101100011111111000110111110100101101000010010101111111100101000010001101000011
0000000000000000000001000100000101000000000000000100000011011000001001000010000000010000000000000001010000000100000000000000000000000110001000101011100000000001000000000000000001000000000000001000000000000110001000010000000000000000000001000011000001000000
1011101111110111000110011101100111010110111001111011110101110111011010010001100110011100111001111101101110011110011101110010110011011100110011100101111011111111100111111101000111001111001110101110001000111100110110011000111010000110111011111101111001100111
0001110010001101110100100111110000101111111000011110111110101100110011110110111011010101101111111101111100001111111111110111101001010011101011111110011111010110001001111010011110111011111000110111111011111100100111111010110111111011110101111111101001111101
0000000000000000000000000000000000000000000000000000000010000000000000000010000000000001000000000000000000000000000010000000000000000000000000100000000000000000000000000000000000000000000000000000000000000000000000000000000000010000000000000000000000100000
0111100101101010101000000000000101100101000010010010110000100001001000000010001000001011000000000100011100110000101011000001011101100000010000100001000010010100101000100000000100110001010000000001100000000100000101010011000000001000010000000010000000000100
1111110111111111110111111011101111110111111111101101111101111011110011111111110111011001111111111111111111101111111111011010111101110110100111101011111111111000101100110111011100111111011001011111011101010111111010011110111111111101111111111111101011000011
1011111111111111111111110111111111111111111011111111111111111111111101111111111110101111111111101010111110111111101111111101111111110111110111111111111111011101111111111101111111111011111011111111111111110111111111101111011001111111110111101111111111111111
